{
  "version": "1.0",
  "truncation": null,
  "padding": null,
  "added_tokens": [
    {
      "id": 0,
      "content": "[PAD]",
      "single_word": false,
      "lstrip": false,
      "rstrip": false,
      "normalized": false,
      "special": true
    },
    {
      "id": 1,
      "content": "[UNK]",
      "single_word": false,
      "lstrip": false,
      "rstrip": false,
      "normalized": false,
      "special": true
    },
    {
      "id": 2,
      "content": "[MASK]",
      "single_word": false,
      "lstrip": false,
      "rstrip": false,
      "normalized": false,
      "special": true
    }
  ],
  "normalizer": null,
  "pre_tokenizer": {
    "type": "Whitespace"
  },
  "post_processor": null,
  "decoder": null,
  "model": {
    "type": "BPE",
    "dropout": null,
    "unk_token": "[UNK]",
    "continuing_subword_prefix": null,
    "end_of_word_suffix": null,
    "fuse_unk": false,
    "byte_fallback": false,
    "ignore_merges": false,
    "vocab": {
      "[PAD]": 0,
      "[UNK]": 1,
      "[MASK]": 2,
      "!": 3,
      "\"": 4,
      "#": 5,
      "&": 6,
      "'": 7,
      "(": 8,
      ")": 9,
      ",": 10,
      "-": 11,
      ".": 12,
      "/": 13,
      "0": 14,
      "1": 15,
      "2": 16,
      "3": 17,
      "4": 18,
      "5": 19,
      "6": 20,
      "7": 21,
      "8": 22,
      "9": 23,
      ":": 24,
      ";": 25,
      "?": 26,
      "A": 27,
      "B": 28,
      "C": 29,
      "D": 30,
      "E": 31,
      "F": 32,
      "G": 33,
      "H": 34,
      "I": 35,
      "J": 36,
      "K": 37,
      "L": 38,
      "M": 39,
      "N": 40,
      "O": 41,
      "P": 42,
      "Q": 43,
      "R": 44,
      "S": 45,
      "T": 46,
      "U": 47,
      "V": 48,
      "W": 49,
      "X": 50,
      "Y": 51,
      "Z": 52,
      "`": 53,
      "a": 54,
      "b": 55,
      "c": 56,
      "d": 57,
      "e": 58,
      "f": 59,
      "g": 60,
      "h": 61,
      "i": 62,
      "j": 63,
      "k": 64,
      "l": 65,
      "m": 66,
      "n": 67,
      "o": 68,
      "p": 69,
      "q": 70,
      "r": 71,
      "s": 72,
      "t": 73,
      "u": 74,
      "v": 75,
      "w": 76,
      "x": 77,
      "y": 78,
      "z": 79,
      "¥": 80,
      "©": 81,
      "é": 82,
      "ñ": 83,
      "ó": 84,
      "ü": 85,
      "–": 86,
      "—": 87,
      "‘": 88,
      "’": 89,
      "“": 90,
      "”": 91,
      "…": 92,
      "he": 93,
      "in": 94,
      "ou": 95,
      "the": 96,
      "an": 97,
      "re": 98,
      "on": 99,
      "ll": 100,
      "you": 101,
      "me": 102,
      "th": 103,
      "to": 104,
      "ve": 105,
      "st": 106,
      "at": 107,
      "ow": 108,
      "ing": 109,
      "or": 110,
      "ar": 111,
      "and": 112,
      "le": 113,
      "se": 114,
      "it": 115,
      "be": 116,
      "ay": 117,
      "nd": 118,
      "is": 119,
      "of": 120,
      "ed": 121,
      "er": 122,
      "gh": 123,
      "as": 124,
      "ke": 125,
      "li": 126,
      "ot": 127,
      "ad": 128,
      "ro": 129,
      "es": 130,
      "my": 131,
      "all": 132,
      "en": 133,
      "id": 134,
      "ome": 135,
      "ld": 136,
      "ac": 137,
      "lo": 138,
      "ght": 139,
      "The": 140,
      "al": 141,
      "ut": 142,
      "ver": 143,
      "one": 144,
      "your": 145,
      "wi": 146,
      "And": 147,
      "ri": 148,
      "that": 149,
      "You": 150,
      "ne": 151,
      "ell": 152,
      "wh": 153,
      "for": 154,
      "et": 155,
      "own": 156,
      "od": 157,
      "ain": 158,
      "can": 159,
      "ch": 160,
      "ust": 161,
      "no": 162,
      "out": 163,
      "now": 164,
      "we": 165,
      "was": 166,
      "go": 167,
      "ti": 168,
      "sh": 169,
      "do": 170,
      "ave": 171,
      "ir": 172,
      "ind": 173,
      "up": 174,
      "ab": 175,
      "ry": 176,
      "way": 177,
      "un": 178,
      "man": 179,
      "with": 180,
      "fe": 181,
      "ight": 182,
      "here": 183,
      "ill": 184,
      "down": 185,
      "are": 186,
      "am": 187,
      "ore": 188,
      "na": 189,
      "ur": 190,
      "ly": 191,
      "know": 192,
      "ake": 193,
      "they": 194,
      "de": 195,
      "got": 196,
      "ce": 197,
      "ok": 198,
      "thing": 199,
      "some": 200,
      "He": 201,
      "hen": 202,
      "like": 203,
      "ack": 204,
      "ck": 205,
      "But": 206,
      "hi": 207,
      "sa": 208,
      "ong": 209,
      "rom": 210,
      "ould": 211,
      "so": 212,
      "don": 213,
      "just": 214,
      "his": 215,
      "pe": 216,
      "time": 217,
      "bl": 218,
      "ther": 219,
      "Well": 220,
      "co": 221,
      "tr": 222,
      "art": 223,
      "ound": 224,
      "there": 225,
      "ide": 226,
      "see": 227,
      "hat": 228,
      "what": 229,
      "el": 230,
      "pl": 231,
      "she": 232,
      "ep": 233,
      "ho": 234,
      "her": 235,
      "say": 236,
      "from": 237,
      "not": 238,
      "wor": 239,
      "ag": 240,
      "have": 241,
      "alk": 242,
      "It": 243,
      "ard": 244,
      "love": 245,
      "il": 246,
      "ever": 247,
      "ant": 248,
      "onna": 249,
      "ang": 250,
      "ace": 251,
      "ey": 252,
      "ody": 253,
      "day": 254,
      "ter": 255,
      "get": 256,
      "ast": 257,
      "body": 258,
      "ink": 259,
      "ine": 260,
      "come": 261,
      "gonna": 262,
      "ough": 263,
      "ple": 264,
      "too": 265,
      "ion": 266,
      "um": 267,
      "To": 268,
      "by": 269,
      "back": 270,
      "him": 271,
      "ap": 272,
      "said": 273,
      "end": 274,
      "more": 275,
      "ss": 276,
      "nt": 277,
      "bo": 278,
      "been": 279,
      "look": 280,
      "but": 281,
      "any": 282,
      "if": 283,
      "She": 284,
      "ie": 285,
      "mo": 286,
      "this": 287,
      "ue": 288,
      "They": 289,
      "When": 290,
      "who": 291,
      "will": 292,
      "where": 293,
      "urn": 294,
      "night": 295,
      "ame": 296,
      "right": 297,
      "aby": 298,
      "In": 299,
      "low": 300,
      "ear": 301,
      "po": 302,
      "when": 303,
      "ent": 304,
      "ak": 305,
      "could": 306,
      "want": 307,
      "walk": 308,
      "ic": 309,
      "us": 310,
      "did": 311,
      "If": 312,
      "wo": 313,
      "ile": 314,
      "sed": 315,
      "ive": 316,
      "red": 317,
      "thr": 318,
      "br": 319,
      "Oh": 320,
      "ig": 321,
      "think": 322,
      "never": 323,
      "That": 324,
      "ble": 325,
      "long": 326,
      "side": 327,
      "tell": 328,
      "eve": 329,
      "au": 330,
      "our": 331,
      "ra": 332,
      "orn": 333,
      "ate": 334,
      "ers": 335,
      "gr": 336,
      "baby": 337,
      "heart": 338,
      "them": 339,
      "ist": 340,
      "ath": 341,
      "ith": 342,
      "let": 343,
      "Don": 344,
      "make": 345,
      "fore": 346,
      "We": 347,
      "had": 348,
      "lf": 349,
      "ure": 350,
      "There": 351,
      "ess": 352,
      "light": 353,
      "good": 354,
      "und": 355,
      "feel": 356,
      "ase": 357,
      "about": 358,
      "fo": 359,
      "were": 360,
      "em": 361,
      "through": 362,
      "con": 363,
      "stand": 364,
      "every": 365,
      "hand": 366,
      "take": 367,
      "With": 368,
      "away": 369,
      "sto": 370,
      "wn": 371,
      "ber": 372,
      "No": 373,
      "would": 374,
      "My": 375,
      "Some": 376,
      "other": 377,
      "com": 378,
      "ree": 379,
      "how": 380,
      "into": 381,
      "ty": 382,
      "around": 383,
      "dre": 384,
      "head": 385,
      "need": 386,
      "mind": 387,
      "sp": 388,
      "im": 389,
      "tle": 390,
      "turn": 391,
      "self": 392,
      "ade": 393,
      "ick": 394,
      "ft": 395,
      "their": 396,
      "read": 397,
      "eyes": 398,
      "om": 399,
      "air": 400,
      "give": 401,
      "mu": 402,
      "wind": 403,
      "bu": 404,
      "ge": 405,
      "row": 406,
      "road": 407,
      "new": 408,
      "sk": 409,
      "So": 410,
      "oney": 411,
      "play": 412,
      "very": 413,
      "What": 414,
      "qu": 415,
      "ity": 416,
      "ople": 417,
      "All": 418,
      "For": 419,
      "Now": 420,
      "ng": 421,
      "pr": 422,
      "ous": 423,
      "still": 424,
      "ark": 425,
      "door": 426,
      "world": 427,
      "won": 428,
      "live": 429,
      "St": 430,
      "call": 431,
      "lit": 432,
      "ount": 433,
      "ways": 434,
      "hard": 435,
      "oh": 436,
      "old": 437,
      "Where": 438,
      "di": 439,
      "over": 440,
      "sun": 441,
      "must": 442,
      "only": 443,
      "dr": 444,
      "gone": 445,
      "pre": 446,
      "mem": 447,
      "fri": 448,
      "under": 449,
      "bre": 450,
      "che": 451,
      "fu": 452,
      "str": 453,
      "On": 454,
      "Th": 455,
      "clo": 456,
      "fall": 457,
      "ol": 458,
      "even": 459,
      "friend": 460,
      "Lo": 461,
      "ex": 462,
      "stre": 463,
      "iss": 464,
      "place": 465,
      "people": 466,
      "off": 467,
      "life": 468,
      "Li": 469,
      "wat": 470,
      "well": 471,
      "hear": 472,
      "ord": 473,
      "pen": 474,
      "again": 475,
      "face": 476,
      "try": 477,
      "went": 478,
      "town": 479,
      "keep": 480,
      "Who": 481,
      "ait": 482,
      "far": 483,
      "su": 484,
      "much": 485,
      "lay": 486,
      "blow": 487,
      "car": 488,
      "ought": 489,
      "ish": 490,
      "Every": 491,
      "gu": 492,
      "always": 493,
      "ears": 494,
      "fi": 495,
      "te": 496,
      "ally": 497,
      "times": 498,
      "Be": 499,
      "God": 500,
      "morn": 501,
      "ance": 502,
      "sing": 503,
      "ation": 504,
      "beg": 505,
      "things": 506,
      "hold": 507,
      "woman": 508,
      "home": 509,
      "land": 510,
      "swe": 511,
      "ts": 512,
      "then": 513,
      "thin": 514,
      "than": 515,
      "ser": 516,
      "before": 517,
      "spe": 518,
      "ud": 519,
      "wr": 520,
      "An": 521,
      "Just": 522,
      "bro": 523,
      "made": 524,
      "run": 525,
      "men": 526,
      "ail": 527,
      "cr": 528,
      "last": 529,
      "might": 530,
      "put": 531,
      "Then": 532,
      "work": 533,
      "dream": 534,
      "blo": 535,
      "has": 536,
      "ach": 537,
      "irl": 538,
      "something": 539,
      "high": 540,
      "says": 541,
      "little": 542,
      "Ro": 543,
      "gg": 544,
      "ton": 545,
      "wait": 546,
      "ask": 547,
      "av": 548,
      "ild": 549,
      "ite": 550,
      "name": 551,
      "ause": 552,
      "As": 553,
      "ather": 554,
      "talk": 555,
      "bet": 556,
      "ried": 557,
      "going": 558,
      "af": 559,
      "lu": 560,
      "ouble": 561,
      "bed": 562,
      "chang": 563,
      "nothing": 564,
      "sho": 565,
      "member": 566,
      "ies": 567,
      "la": 568,
      "ped": 569,
      "mer": 570,
      "ross": 571,
      "ev": 572,
      "may": 573,
      "ones": 574,
      "tor": 575,
      "cry": 576,
      "ds": 577,
      "ama": 578,
      "ready": 579,
      "street": 580,
      "?”": 581,
      "Is": 582,
      "kind": 583,
      "mile": 584,
      "ct": 585,
      "lad": 586,
      "many": 587,
      "From": 588,
      "ee": 589,
      "find": 590,
      "ice": 591,
      "ings": 592,
      "ses": 593,
      "ass": 594,
      "roll": 595,
      "fl": 596,
      "wall": 597,
      "leep": 598,
      "burn": 599,
      "ps": 600,
      "ta": 601,
      "’,": 602,
      "beli": 603,
      "How": 604,
      "gre": 605,
      "line": 606,
      "ze": 607,
      "arm": 608,
      "ken": 609,
      "Do": 610,
      "der": 611,
      "girl": 612,
      "hang": 613,
      "sc": 614,
      "ya": 615,
      "anna": 616,
      "took": 617,
      "stay": 618,
      "left": 619,
      "Your": 620,
      "kill": 621,
      "less": 622,
      "age": 623,
      "break": 624,
      "Go": 625,
      "Mo": 626,
      "Yes": 627,
      "came": 628,
      "hind": 629,
      "remember": 630,
      "seen": 631,
      "nobody": 632,
      "dead": 633,
      "comes": 634,
      "didn": 635,
      "dark": 636,
      "led": 637,
      "room": 638,
      "til": 639,
      ",”": 640,
      "Down": 641,
      "Lord": 642,
      "One": 643,
      "igh": 644,
      "true": 645,
      "Like": 646,
      "Will": 647,
      "ise": 648,
      "late": 649,
      "saw": 650,
      "moon": 651,
      "Come": 652,
      "Tell": 653,
      "ah": 654,
      "dri": 655,
      "per": 656,
      "rain": 657,
      "sit": 658,
      "inn": 659,
      "ash": 660,
      "cle": 661,
      "hap": 662,
      "ten": 663,
      "ven": 664,
      "star": 665,
      "ows": 666,
      "behind": 667,
      "mat": 668,
      "ring": 669,
      "goin": 670,
      "someone": 671,
      "stop": 672,
      "tonight": 673,
      "better": 674,
      "Or": 675,
      "dis": 676,
      "flow": 677,
      "wanna": 678,
      "inside": 679,
      "really": 680,
      "somebody": 681,
      "pro": 682,
      "sleep": 683,
      "alone": 684,
      "yourself": 685,
      "pin": 686,
      "tre": 687,
      "anc": 688,
      "song": 689,
      "yer": 690,
      "show": 691,
      "knows": 692,
      "lookin": 693,
      "hy": 694,
      "ip": 695,
      "money": 696,
      "ru": 697,
      "start": 698,
      "les": 699,
      "while": 700,
      "black": 701,
      "walkin": 702,
      "cause": 703,
      "est": 704,
      "tin": 705,
      "step": 706,
      "leave": 707,
      "child": 708,
      "does": 709,
      "trouble": 710,
      "boy": 711,
      "emp": 712,
      "fire": 713,
      "Say": 714,
      "dy": 715,
      "done": 716,
      "lt": 717,
      "lin": 718,
      "sou": 719,
      "tom": 720,
      "morning": 721,
      "blood": 722,
      "believe": 723,
      "Sh": 724,
      "ba": 725,
      "count": 726,
      "ling": 727,
      "ness": 728,
      "pain": 729,
      "ting": 730,
      "ving": 731,
      "lost": 732,
      "Bl": 733,
      "Ne": 734,
      "vin": 735,
      "thought": 736,
      "ign": 737,
      "sky": 738,
      "Ain": 739,
      "bad": 740,
      "mine": 741,
      "ran": 742,
      "ond": 743,
      "death": 744,
      "bring": 745,
      "cre": 746,
      "eah": 747,
      "fly": 748,
      "kn": 749,
      "heard": 750,
      "ouse": 751,
      "young": 752,
      "stone": 753,
      "feet": 754,
      "please": 755,
      "sweet": 756,
      "His": 757,
      "Play": 758,
      "sure": 759,
      "ted": 760,
      "another": 761,
      "orrow": 762,
      "best": 763,
      "myself": 764,
      "shot": 765,
      "water": 766,
      "wrong": 767,
      "ff": 768,
      "ssed": 769,
      "these": 770,
      "along": 771,
      "Look": 772,
      "Can": 773,
      "Let": 774,
      "ans": 775,
      "nock": 776,
      "comin": 777,
      "pray": 778,
      "crying": 779,
      "big": 780,
      "slow": 781,
      "arn": 782,
      "bell": 783,
      "blue": 784,
      "hands": 785,
      "pret": 786,
      "soul": 787,
      "babe": 788,
      "Me": 789,
      "May": 790,
      "ime": 791,
      "mill": 792,
      "pa": 793,
      "ride": 794,
      "two": 795,
      "ues": 796,
      "rip": 797,
      "river": 798,
      "why": 799,
      "tru": 800,
      "matter": 801,
      "Jo": 802,
      "cl": 803,
      "cur": 804,
      "den": 805,
      "die": 806,
      "hair": 807,
      "knew": 808,
      "que": 809,
      "gold": 810,
      "aven": 811,
      "without": 812,
      "whole": 813,
      "ountain": 814,
      "Baby": 815,
      "Man": 816,
      "Whi": 817,
      "hill": 818,
      "lot": 819,
      "tou": 820,
      "ina": 821,
      "llow": 822,
      "ste": 823,
      "ary": 824,
      "neath": 825,
      "same": 826,
      "ump": 827,
      "aking": 828,
      "broken": 829,
      "At": 830,
      "cke": 831,
      "cut": 832,
      "flo": 833,
      "free": 834,
      "hur": 835,
      "lp": 836,
      "pu": 837,
      "alley": 838,
      "near": 839,
      "cold": 840,
      "ousand": 841,
      "Ple": 842,
      "Take": 843,
      "born": 844,
      "ci": 845,
      "used": 846,
      "andy": 847,
      "als": 848,
      "nothin": 849,
      "upon": 850,
      "looked": 851,
      "aught": 852,
      "ground": 853,
      "ful": 854,
      "Hen": 855,
      "Tr": 856,
      "cross": 857,
      "gun": 858,
      "house": 859,
      "king": 860,
      "ose": 861,
      "sin": 862,
      "sad": 863,
      "wish": 864,
      "ason": 865,
      "should": 866,
      "able": 867,
      "Heart": 868,
      "friends": 869,
      "Got": 870,
      "Re": 871,
      "cat": 872,
      "care": 873,
      "gs": 874,
      "hour": 875,
      "ove": 876,
      "part": 877,
      "tain": 878,
      "wake": 879,
      "xt": 880,
      "hell": 881,
      "lly": 882,
      "thousand": 883,
      "its": 884,
      "ummer": 885,
      "strang": 886,
      "million": 887,
      "Please": 888,
      "Henry": 889,
      "Al": 890,
      "Are": 891,
      "Miss": 892,
      "vo": 893,
      "years": 894,
      "meet": 895,
      "lim": 896,
      "next": 897,
      "train": 898,
      "ister": 899,
      "after": 900,
      "bir": 901,
      "cra": 902,
      "knock": 903,
      "rest": 904,
      "once": 905,
      "white": 906,
      "tion": 907,
      "shall": 908,
      "plain": 909,
      "move": 910,
      "drink": 911,
      "ched": 912,
      "Love": 913,
      "serve": 914,
      "inning": 915,
      ".”": 916,
      "Br": 917,
      "By": 918,
      "Mama": 919,
      "Pe": 920,
      "fell": 921,
      "fight": 922,
      "fill": 923,
      "hor": 924,
      "jo": 925,
      "mon": 926,
      "pri": 927,
      "une": 928,
      "whe": 929,
      "heaven": 930,
      "thes": 931,
      "ren": 932,
      "irst": 933,
      "above": 934,
      "ung": 935,
      "foot": 936,
      "wonder": 937,
      "ggle": 938,
      "changed": 939,
      "Bo": 940,
      "Le": 941,
      "This": 942,
      "ix": 943,
      "jud": 944,
      "min": 945,
      "past": 946,
      "round": 947,
      "twi": 948,
      "help": 949,
      "mean": 950,
      "asy": 951,
      "shad": 952,
      "soon": 953,
      "days": 954,
      "everything": 955,
      "clothes": 956,
      "miles": 957,
      "known": 958,
      "pretty": 959,
      "Honey": 960,
      "bar": 961,
      "fin": 962,
      "gl": 963,
      "ks": 964,
      "mid": 965,
      "mama": 966,
      "ny": 967,
      "ph": 968,
      "pas": 969,
      "tears": 970,
      "zy": 971,
      "hed": 972,
      "ins": 973,
      "inter": 974,
      "stu": 975,
      "ence": 976,
      "cho": 977,
      "deep": 978,
      "blind": 979,
      "most": 980,
      "skin": 981,
      "Everybody": 982,
      "New": 983,
      "Ru": 984,
      "Why": 985,
      "bound": 986,
      "pt": 987,
      "sil": 988,
      "across": 989,
      "wear": 990,
      "cks": 991,
      "seem": 992,
      "follow": 993,
      "wouldn": 994,
      "window": 995,
      "De": 996,
      "High": 997,
      "ale": 998,
      "four": 999,
      "gave": 1000,
      "gam": 1001,
      "game": 1002,
      "open": 1003,
      "real": 1004,
      "reason": 1005,
      "met": 1006,
      "told": 1007,
      "stra": 1008,
      "set": 1009,
      "ote": 1010,
      "act": 1011,
      "ship": 1012,
      "blues": 1013,
      "ards": 1014,
      "brain": 1015,
      "West": 1016,
      "fool": 1017,
      "understand": 1018,
      "speak": 1019,
      "dreams": 1020,
      "happen": 1021,
      "country": 1022,
      "floor": 1023,
      "Ang": 1024,
      "Gonna": 1025,
      "Joh": 1026,
      "bot": 1027,
      "fr": 1028,
      "honey": 1029,
      "son": 1030,
      "med": 1031,
      "though": 1032,
      "learn": 1033,
      "sea": 1034,
      "already": 1035,
      "wild": 1036,
      "forget": 1037,
      "illy": 1038,
      "else": 1039,
      "igg": 1040,
      "trying": 1041,
      "guess": 1042,
      "beginning": 1043,
      "law": 1044,
      "lady": 1045,
      "Willie": 1046,
      "cy": 1047,
      "cro": 1048,
      "each": 1049,
      "ian": 1050,
      "ich": 1051,
      "mountain": 1052,
      "sound": 1053,
      "smile": 1054,
      "tri": 1055,
      "ul": 1056,
      "war": 1057,
      "yes": 1058,
      "wiggle": 1059,
      "hope": 1060,
      "words": 1061,
      "looking": 1062,
      "turned": 1063,
      "watch": 1064,
      "killed": 1065,
      "While": 1066,
      "touch": 1067,
      "Angel": 1068,
      "ball": 1069,
      "bout": 1070,
      "ction": 1071,
      "fun": 1072,
      "found": 1073,
      "glad": 1074,
      "io": 1075,
      "ls": 1076,
      "summer": 1077,
      "ane": 1078,
      "ont": 1079,
      "ors": 1080,
      "omen": 1081,
      "shine": 1082,
      "agg": 1083,
      "eyed": 1084,
      "book": 1085,
      "poor": 1086,
      "shoes": 1087,
      "streets": 1088,
      "Black": 1089,
      "bells": 1090,
      "straight": 1091,
      "Ho": 1092,
      "Jack": 1093,
      "Not": 1094,
      "Won": 1095,
      "bus": 1096,
      "crow": 1097,
      "dist": 1098,
      "fle": 1099,
      "gar": 1100,
      "par": 1101,
      "pass": 1102,
      "use": 1103,
      "outh": 1104,
      "llar": 1105,
      "ment": 1106,
      "arrow": 1107,
      "key": 1108,
      "lip": 1109,
      "shin": 1110,
      "amb": 1111,
      "peace": 1112,
      "anything": 1113,
      "wanted": 1114,
      "walked": 1115,
      "standing": 1116,
      "died": 1117,
      "truth": 1118,
      "Get": 1119,
      "Key": 1120,
      "Se": 1121,
      "az": 1122,
      "cour": 1123,
      "city": 1124,
      "easy": 1125,
      "fast": 1126,
      "father": 1127,
      "hot": 1128,
      "kid": 1129,
      "mar": 1130,
      "miss": 1131,
      "pic": 1132,
      "pick": 1133,
      "ris": 1134,
      "sl": 1135,
      "tried": 1136,
      "tune": 1137,
      "res": 1138,
      "ves": 1139,
      "ster": 1140,
      "wee": 1141,
      "shore": 1142,
      "rybody": 1143,
      "somethin": 1144,
      "bye": 1145,
      "mother": 1146,
      "full": 1147,
      "close": 1148,
      "blowin": 1149,
      "Roll": 1150,
      "change": 1151,
      "onesome": 1152,
      "walls": 1153,
      "stars": 1154,
      "!”": 1155,
      "Cause": 1156,
      "Father": 1157,
      "Of": 1158,
      "bit": 1159,
      "hit": 1160,
      "kne": 1161,
      "pie": 1162,
      "rid": 1163,
      "yeah": 1164,
      "oud": 1165,
      "ory": 1166,
      "beat": 1167,
      "lies": 1168,
      "lose": 1169,
      "lover": 1170,
      "which": 1171,
      "cove": 1172,
      "els": 1173,
      "both": 1174,
      "couldn": 1175,
      "cont": 1176,
      "Someone": 1177,
      "coming": 1178,
      "tryin": 1179,
      "avy": 1180,
      "great": 1181,
      "Joey": 1182,
      "Never": 1183,
      "Put": 1184,
      "Time": 1185,
      "Wigg": 1186,
      "awn": 1187,
      "bs": 1188,
      "bor": 1189,
      "bright": 1190,
      "ctor": 1191,
      "dir": 1192,
      "eat": 1193,
      "hung": 1194,
      "nin": 1195,
      "pow": 1196,
      "pay": 1197,
      "rough": 1198,
      "tree": 1199,
      "women": 1200,
      "ons": 1201,
      "ara": 1202,
      "wife": 1203,
      "dollar": 1204,
      "aved": 1205,
      "sail": 1206,
      "pear": 1207,
      "ions": 1208,
      "anymore": 1209,
      "thinkin": 1210,
      "voice": 1211,
      "filled": 1212,
      "Wiggle": 1213,
      "Ch": 1214,
      "Did": 1215,
      "Ev": 1216,
      "Sara": 1217,
      "Un": 1218,
      "Was": 1219,
      "aid": 1220,
      "aut": 1221,
      "ape": 1222,
      "cri": 1223,
      "des": 1224,
      "fine": 1225,
      "iz": 1226,
      "ither": 1227,
      "lau": 1228,
      "sat": 1229,
      "sur": 1230,
      "ank": 1231,
      "reed": 1232,
      "ated": 1233,
      "ates": 1234,
      "sen": 1235,
      "cked": 1236,
      "word": 1237,
      "eye": 1238,
      "early": 1239,
      "walking": 1240,
      "forever": 1241,
      "Nothing": 1242,
      "press": 1243,
      "asked": 1244,
      "arms": 1245,
      "judge": 1246,
      "silver": 1247,
      "John": 1248,
      "Town": 1249,
      "Yeah": 1250,
      "nor": 1251,
      "path": 1252,
      "sand": 1253,
      "sick": 1254,
      "vis": 1255,
      "vill": 1256,
      "top": 1257,
      "ork": 1258,
      "lead": 1259,
      "send": 1260,
      "enough": 1261,
      "rise": 1262,
      "sometimes": 1263,
      "Too": 1264,
      "throw": 1265,
      "ches": 1266,
      "mornin": 1267,
      "highway": 1268,
      "ighbor": 1269,
      "flowers": 1270,
      "children": 1271,
      "Brown": 1272,
      "Angelina": 1273,
      "Bro": 1274,
      "Mr": 1275,
      "Twe": 1276,
      "Up": 1277,
      "aw": 1278,
      "bab": 1279,
      "cap": 1280,
      "dar": 1281,
      "dle": 1282,
      "dawn": 1283,
      "fish": 1284,
      "first": 1285,
      "hide": 1286,
      "lonesome": 1287,
      "main": 1288,
      "ning": 1289,
      "num": 1290,
      "pi": 1291,
      "sm": 1292,
      "wide": 1293,
      "stri": 1294,
      "ater": 1295,
      "ort": 1296,
      "list": 1297,
      "alf": 1298,
      "fear": 1299,
      "blame": 1300,
      "hood": 1301,
      "anybody": 1302,
      "stor": 1303,
      "spir": 1304,
      "called": 1305,
      "breath": 1306,
      "Everything": 1307,
      "brother": 1308,
      "shoot": 1309,
      "queen": 1310,
      "pull": 1311,
      "Alber": 1312,
      "bird": 1313,
      "Am": 1314,
      "Out": 1315,
      "Po": 1316,
      "Winter": 1317,
      "bat": 1318,
      "bow": 1319,
      "band": 1320,
      "dance": 1321,
      "ize": 1322,
      "kiss": 1323,
      "ner": 1324,
      "op": 1325,
      "sup": 1326,
      "hes": 1327,
      "ature": 1328,
      "leve": 1329,
      "sent": 1330,
      "edle": 1331,
      "aces": 1332,
      "weep": 1333,
      "dee": 1334,
      "someday": 1335,
      "trave": 1336,
      "track": 1337,
      "worth": 1338,
      "umble": 1339,
      "Tom": 1340,
      "apart": 1341,
      "ends": 1342,
      "box": 1343,
      "earth": 1344,
      "akin": 1345,
      "carry": 1346,
      "rolling": 1347,
      "ckets": 1348,
      "hurt": 1349,
      "crazy": 1350,
      "Alberta": 1351,
      "Ar": 1352,
      "Bu": 1353,
      "Billy": 1354,
      "Cat": 1355,
      "Fe": 1356,
      "Jim": 1357,
      "Sing": 1358,
      "See": 1359,
      "York": 1360,
      "ali": 1361,
      "cried": 1362,
      "gent": 1363,
      "je": 1364,
      "mouth": 1365,
      "ony": 1366,
      "those": 1367,
      "toge": 1368,
      "beaut": 1369,
      "lie": 1370,
      "living": 1371,
      "ene": 1372,
      "ute": 1373,
      "neighbor": 1374,
      "chance": 1375,
      "outside": 1376,
      "wasn": 1377,
      "goes": 1378,
      "shake": 1379,
      "amp": 1380,
      "loved": 1381,
      "ants": 1382,
      "anyone": 1383,
      "wood": 1384,
      "iled": 1385,
      "thinking": 1386,
      "Nobody": 1387,
      "Only": 1388,
      "against": 1389,
      "mercy": 1390,
      "maybe": 1391,
      "burning": 1392,
      "clear": 1393,
      "doesn": 1394,
      "tomorrow": 1395,
      "horse": 1396,
      "shadows": 1397,
      "Rub": 1398,
      "together": 1399,
      "Jud": 1400,
      "Ooh": 1401,
      "Que": 1402,
      "Sad": 1403,
      "Ten": 1404,
      "bone": 1405,
      "ced": 1406,
      "corn": 1407,
      "danc": 1408,
      "fa": 1409,
      "ha": 1410,
      "ked": 1411,
      "smo": 1412,
      "spo": 1413,
      "vil": 1414,
      "int": 1415,
      "ream": 1416,
      "three": 1417,
      "today": 1418,
      "being": 1419,
      "nder": 1420,
      "whis": 1421,
      "cannot": 1422,
      "chain": 1423,
      "dog": 1424,
      "felt": 1425,
      "ared": 1426,
      "gotta": 1427,
      "blin": 1428,
      "cover": 1429,
      "gets": 1430,
      "looks": 1431,
      "rail": 1432,
      "Sometimes": 1433,
      "build": 1434,
      "Soon": 1435,
      "litic": 1436,
      "strong": 1437,
      "Before": 1438,
      "began": 1439,
      "lands": 1440,
      "talkin": 1441,
      "lues": 1442,
      "luck": 1443,
      "ashing": 1444,
      "empty": 1445,
      "Maybe": 1446,
      "midnight": 1447,
      "crossed": 1448,
      "ville": 1449,
      "Tweedle": 1450,
      "Queen": 1451,
      "Blues": 1452,
      "Dri": 1453,
      "Fran": 1454,
      "Her": 1455,
      "Try": 1456,
      "cast": 1457,
      "fate": 1458,
      "gy": 1459,
      "ied": 1460,
      "ious": 1461,
      "mur": 1462,
      "making": 1463,
      "pound": 1464,
      "sang": 1465,
      "sign": 1466,
      "tong": 1467,
      "yet": 1468,
      "rew": 1469,
      "sell": 1470,
      "sees": 1471,
      "seven": 1472,
      "bend": 1473,
      "ison": 1474,
      "chur": 1475,
      "ween": 1476,
      "doctor": 1477,
      "among": 1478,
      "dec": 1479,
      "oker": 1480,
      "ield": 1481,
      "wants": 1482,
      "grave": 1483,
      "everywhere": 1484,
      "others": 1485,
      "dressed": 1486,
      "buy": 1487,
      "prote": 1488,
      "falling": 1489,
      "blows": 1490,
      "avin": 1491,
      "names": 1492,
      "burned": 1493,
      "Good": 1494,
      "Most": 1495,
      "drift": 1496,
      "clean": 1497,
      "since": 1498,
      "hello": 1499,
      "Missus": 1500,
      "wheel": 1501,
      "front": 1502,
      "listen": 1503,
      "storm": 1504,
      "Frank": 1505,
      "Co": 1506,
      "Even": 1507,
      "Lee": 1508,
      "Magg": 1509,
      "Under": 1510,
      "cir": 1511,
      "case": 1512,
      "du": 1513,
      "dust": 1514,
      "ered": 1515,
      "fing": 1516,
      "fair": 1517,
      "jail": 1518,
      "mist": 1519,
      "pers": 1520,
      "race": 1521,
      "sw": 1522,
      "swi": 1523,
      "sink": 1524,
      "six": 1525,
      "ture": 1526,
      "valley": 1527,
      "heavy": 1528,
      "ouds": 1529,
      "anim": 1530,
      "tory": 1531,
      "kend": 1532,
      "rop": 1533,
      "loc": 1534,
      "alt": 1535,
      "alse": 1536,
      "doin": 1537,
      "dogs": 1538,
      "iron": 1539,
      "few": 1540,
      "devil": 1541,
      "sold": 1542,
      "coat": 1543,
      "aster": 1544,
      "ums": 1545,
      "politic": 1546,
      "goodbye": 1547,
      "Something": 1548,
      "bully": 1549,
      "quick": 1550,
      "dise": 1551,
      "stru": 1552,
      "wenty": 1553,
      "keeps": 1554,
      "Because": 1555,
      "aving": 1556,
      "flat": 1557,
      "psy": 1558,
      "hangin": 1559,
      "ances": 1560,
      "steps": 1561,
      "boys": 1562,
      "paid": 1563,
      "cket": 1564,
      "aughter": 1565,
      "crowd": 1566,
      "distance": 1567,
      "knees": 1568,
      "laugh": 1569,
      "spirit": 1570,
      "levee": 1571,
      "Maggie": 1572,
      "Bet": 1573,
      "Could": 1574,
      "Dandy": 1575,
      "List": 1576,
      "Mar": 1577,
      "Mister": 1578,
      "Red": 1579,
      "Sp": 1580,
      "Til": 1581,
      "alive": 1582,
      "bur": 1583,
      "cup": 1584,
      "gal": 1585,
      "glow": 1586,
      "gate": 1587,
      "harm": 1588,
      "half": 1589,
      "narrow": 1590,
      "prom": 1591,
      "rs": 1592,
      "sville": 1593,
      "win": 1594,
      "year": 1595,
      "ñor": 1596,
      "iness": 1597,
      "remain": 1598,
      "stage": 1599,
      "ley": 1600,
      "sear": 1601,
      "ket": 1602,
      "ident": 1603,
      "rie": 1604,
      "forgot": 1605,
      "tired": 1606,
      "unk": 1607,
      "unto": 1608,
      "arewell": 1609,
      "dest": 1610,
      "Hey": 1611,
      "trail": 1612,
      "alkin": 1613,
      "getting": 1614,
      "appear": 1615,
      "boat": 1616,
      "boot": 1617,
      "amed": 1618,
      "posed": 1619,
      "grace": 1620,
      "cond": 1621,
      "conce": 1622,
      "Somebody": 1623,
      "quit": 1624,
      "lives": 1625,
      "Stre": 1626,
      "flower": 1627,
      "treat": 1628,
      "started": 1629,
      "troubles": 1630,
      "Shine": 1631,
      "Hearts": 1632,
      "hours": 1633,
      "stranger": 1634,
      "limb": 1635,
      "People": 1636,
      "seems": 1637,
      "weekend": 1638,
      "power": 1639,
      "reedom": 1640,
      "Brownsville": 1641,
      "battle": 1642,
      "gentle": 1643,
      "disease": 1644,
      "Listen": 1645,
      "Bey": 1646,
      "Blow": 1647,
      "Has": 1648,
      "Have": 1649,
      "Handy": 1650,
      "Ring": 1651,
      "Rid": 1652,
      "Su": 1653,
      "Wor": 1654,
      "ago": 1655,
      "ding": 1656,
      "dif": 1657,
      "fro": 1658,
      "false": 1659,
      "hall": 1660,
      "hid": 1661,
      "ia": 1662,
      "ire": 1663,
      "iam": 1664,
      "ju": 1665,
      "oce": 1666,
      "rag": 1667,
      "sof": 1668,
      "tear": 1669,
      "wer": 1670,
      "heat": 1671,
      "mes": 1672,
      "stick": 1673,
      "orry": 1674,
      "itar": 1675,
      "lift": 1676,
      "ady": 1677,
      "rist": 1678,
      "ries": 1679,
      "whist": 1680,
      "ford": 1681,
      "usts": 1682,
      "tie": 1683,
      "inde": 1684,
      "feed": 1685,
      "dear": 1686,
      "deal": 1687,
      "bling": 1688,
      "trust": 1689,
      "worry": 1690,
      "apped": 1691,
      "nty": 1692,
      "Into": 1693,
      "walks": 1694,
      "raise": 1695,
      "makes": 1696,
      "conf": 1697,
      "dress": 1698,
      "bull": 1699,
      "pride": 1700,
      "lived": 1701,
      "Stand": 1702,
      "Stay": 1703,
      "Though": 1704,
      "Through": 1705,
      "streng": 1706,
      "farm": 1707,
      "suit": 1708,
      "waitin": 1709,
      "torn": 1710,
      "trees": 1711,
      "thoughts": 1712,
      "clouds": 1713,
      "price": 1714,
      "Broken": 1715,
      "Feel": 1716,
      "corner": 1717,
      "protect": 1718,
      "locusts": 1719,
      "search": 1720,
      "Street": 1721,
      "Beyond": 1722,
      "Ah": 1723,
      "Bring": 1724,
      "Day": 1725,
      "Des": 1726,
      "Joker": 1727,
      "Qu": 1728,
      "Two": 1729,
      "Ya": 1730,
      "bread": 1731,
      "cent": 1732,
      "dam": 1733,
      "dra": 1734,
      "field": 1735,
      "hu": 1736,
      "ma": 1737,
      "mis": 1738,
      "mad": 1739,
      "mag": 1740,
      "ned": 1741,
      "py": 1742,
      "plo": 1743,
      "snow": 1744,
      "table": 1745,
      "yell": 1746,
      "ved": 1747,
      "orr": 1748,
      "bey": 1749,
      "because": 1750,
      "rol": 1751,
      "rican": 1752,
      "eter": 1753,
      "deser": 1754,
      "ceive": 1755,
      "cept": 1756,
      "ept": 1757,
      "anyway": 1758,
      "grow": 1759,
      "standin": 1760,
      "everybody": 1761,
      "story": 1762,
      "Someday": 1763,
      "given": 1764,
      "winds": 1765,
      "playing": 1766,
      "evening": 1767,
      "such": 1768,
      "carlet": 1769,
      "cru": 1770,
      "talking": 1771,
      "between": 1772,
      "lude": 1773,
      "laid": 1774,
      "drive": 1775,
      "ester": 1776,
      "ignity": 1777,
      "finally": 1778,
      "stuck": 1779,
      "bottle": 1780,
      "bottom": 1781,
      "picture": 1782,
      "babies": 1783,
      "Winterlude": 1784,
      "Catfish": 1785,
      "faith": 1786,
      "smoke": 1787,
      "church": 1788,
      "Frankie": 1789,
      "ocean": 1790,
      "soft": 1791,
      "Jokerman": 1792,
      "',": 1793,
      "About": 1794,
      "Com": 1795,
      "Cept": 1796,
      "Jes": 1797,
      "Lou": 1798,
      "Lit": 1799,
      "Wo": 1800,
      "fut": 1801,
      "five": 1802,
      "hund": 1803,
      "iver": 1804,
      "ily": 1805,
      "ible": 1806,
      "lone": 1807,
      "mit": 1808,
      "nce": 1809,
      "nic": 1810,
      "ping": 1811,
      "sli": 1812,
      "slip": 1813,
      "twenty": 1814,
      "vie": 1815,
      "thie": 1816,
      "strip": 1817,
      "second": 1818,
      "offe": 1819,
      "addy": 1820,
      "acher": 1821,
      "form": 1822,
      "chair": 1823,
      "nowhere": 1824,
      "tight": 1825,
      "until": 1826,
      "within": 1827,
      "pect": 1828,
      "raid": 1829,
      "grand": 1830,
      "takes": 1831,
      "comp": 1832,
      "turning": 1833,
      "airs": 1834,
      "Wherever": 1835,
      "memory": 1836,
      "closer": 1837,
      "speci": 1838,
      "runnin": 1839,
      "ggy": 1840,
      "evil": 1841,
      "rules": 1842,
      "leaves": 1843,
      "Trouble": 1844,
      "strange": 1845,
      "craw": 1846,
      "twist": 1847,
      "twice": 1848,
      "gamble": 1849,
      "business": 1850,
      "dirt": 1851,
      "hungry": 1852,
      "satis": 1853,
      "sense": 1854,
      "number": 1855,
      "supposed": 1856,
      "Tomorrow": 1857,
      "neighborhood": 1858,
      "Drift": 1859,
      "hundred": 1860,
      "Ame": 1861,
      "Bir": 1862,
      "Big": 1863,
      "Du": 1864,
      "Ever": 1865,
      "East": 1866,
      "Fo": 1867,
      "Gu": 1868,
      "Had": 1869,
      "Him": 1870,
      "Jane": 1871,
      "King": 1872,
      "Memp": 1873,
      "Said": 1874,
      "Scarlet": 1875,
      "Way": 1876,
      "ces": 1877,
      "dignity": 1878,
      "ek": 1879,
      "fat": 1880,
      "fac": 1881,
      "freedom": 1882,
      "jump": 1883,
      "lter": 1884,
      "none": 1885,
      "rat": 1886,
      "ray": 1887,
      "sy": 1888,
      "sme": 1889,
      "sight": 1890,
      "sorrow": 1891,
      "sister": 1892,
      "vic": 1893,
      "wast": 1894,
      "xford": 1895,
      "ye": 1896,
      "het": 1897,
      "rent": 1898,
      "behold": 1899,
      "adise": 1900,
      "rode": 1901,
      "lovin": 1902,
      "yours": 1903,
      "forgive": 1904,
      "char": 1905,
      "nose": 1906,
      "tied": 1907,
      "arden": 1908,
      "ilk": 1909,
      "anger": 1910,
      "angel": 1911,
      "plenty": 1912,
      "brand": 1913,
      "grab": 1914,
      "hearts": 1915,
      "Without": 1916,
      "stole": 1917,
      "mud": 1918,
      "quite": 1919,
      "brea": 1920,
      "explo": 1921,
      "blowing": 1922,
      "fied": 1923,
      "tered": 1924,
      "ations": 1925,
      "thank": 1926,
      "spend": 1927,
      "writ": 1928,
      "broke": 1929,
      "block": 1930,
      "Rock": 1931,
      "waiting": 1932,
      "waited": 1933,
      "afraid": 1934,
      "rollin": 1935,
      "burnin": 1936,
      "believ": 1937,
      "Goin": 1938,
      "Moore": 1939,
      "darkness": 1940,
      "happy": 1941,
      "piness": 1942,
      "Lookin": 1943,
      "prayer": 1944,
      "slowly": 1945,
      "Meet": 1946,
      "Trust": 1947,
      "catch": 1948,
      "Boy": 1949,
      "shadow": 1950,
      "stuff": 1951,
      "gamblin": 1952,
      "shining": 1953,
      "Seen": 1954,
      "course": 1955,
      "izon": 1956,
      "Judas": 1957,
      "circ": 1958,
      "soldi": 1959,
      "Rider": 1960,
      "diffe": 1961,
      "whistle": 1962,
      "Jesus": 1963,
      "Little": 1964,
      "future": 1965,
      "Driftin": 1966,
      "Memphis": 1967,
      "smell": 1968,
      "Ano": 1969,
      "Night": 1970,
      "Old": 1971,
      "Open": 1972,
      "Pre": 1973,
      "Row": 1974,
      "Sat": 1975,
      "Turn": 1976,
      "Ye": 1977,
      "bree": 1978,
      "bark": 1979,
      "bones": 1980,
      "cow": 1981,
      "clu": 1982,
      "cards": 1983,
      "drop": 1984,
      "gut": 1985,
      "god": 1986,
      "gain": 1987,
      "garden": 1988,
      "hound": 1989,
      "hum": 1990,
      "ised": 1991,
      "kin": 1992,
      "later": 1993,
      "milk": 1994,
      "nice": 1995,
      "ost": 1996,
      "pill": 1997,
      "phi": 1998,
      "sile": 1999,
      "sim": 2000,
      "tend": 2001,
      "vio": 2002,
      "wand": 2003,
      "wine": 2004,
      "iny": 2005,
      "reach": 2006,
      "meant": 2007,
      "lean": 2008,
      "secre": 2009,
      "itic": 2010,
      "beside": 2011,
      "ghost": 2012,
      "asleep": 2013,
      "roy": 2014,
      "rock": 2015,
      "esne": 2016,
      "load": 2017,
      "wise": 2018,
      "neck": 2019,
      "ets": 2020,
      "ety": 2021,
      "wel": 2022,
      "till": 2023,
      "dom": 2024,
      "unknown": 2025,
      "col": 2026,
      "tray": 2027,
      "idea": 2028,
      "shelter": 2029,
      "hole": 2030,
      "worse": 2031,
      "gettin": 2032,
      "pled": 2033,
      "iful": 2034,
      "ames": 2035,
      "Inside": 2036,
      "pockets": 2037,
      "icon": 2038,
      "bleed": 2039,
      "ourine": 2040,
      "lights": 2041,
      "feelin": 2042,
      "feeling": 2043,
      "stood": 2044,
      "Nothin": 2045,
      "roads": 2046,
      "quesne": 2047,
      "diam": 2048,
      "drown": 2049,
      "Three": 2050,
      "explain": 2051,
      "stream": 2052,
      "Life": 2053,
      "watched": 2054,
      "suck": 2055,
      "guitar": 2056,
      "teen": 2057,
      "Any": 2058,
      "running": 2059,
      "Road": 2060,
      "named": 2061,
      "hanging": 2062,
      "breaking": 2063,
      "moonlight": 2064,
      "rainin": 2065,
      "happiness": 2066,
      "disappear": 2067,
      "Saying": 2068,
      "tomb": 2069,
      "Shake": 2070,
      "ffer": 2071,
      "Which": 2072,
      "touched": 2073,
      "knockin": 2074,
      "horizon": 2075,
      "footsteps": 2076,
      "ambourine": 2077,
      "control": 2078,
      "dirty": 2079,
      "Christ": 2080,
      "umbled": 2081,
      "Arab": 2082,
      "Rubicon": 2083,
      "animals": 2084,
      "political": 2085,
      "conceit": 2086,
      "Blowin": 2087,
      "indeed": 2088,
      "beyond": 2089,
      "Duquesne": 2090,
      "Another": 2091,
      "Car": 2092,
      "Came": 2093,
      "Corr": 2094,
      "Dum": 2095,
      "Dee": 2096,
      "Eden": 2097,
      "Home": 2098,
      "Hell": 2099,
      "Ke": 2100,
      "Mary": 2101,
      "Oxford": 2102,
      "Pat": 2103,
      "Tambourine": 2104,
      "Wait": 2105,
      "bri": 2106,
      "bare": 2107,
      "bile": 2108,
      "cer": 2109,
      "cab": 2110,
      "cape": 2111,
      "fter": 2112,
      "gree": 2113,
      "har": 2114,
      "kick": 2115,
      "mome": 2116,
      "mir": 2117,
      "ob": 2118,
      "pal": 2119,
      "pur": 2120,
      "pack": 2121,
      "pure": 2122,
      "rhy": 2123,
      "sac": 2124,
      "sal": 2125,
      "sorry": 2126,
      "taking": 2127,
      "uff": 2128,
      "vain": 2129,
      "wound": 2130,
      "wink": 2131,
      "warm": 2132,
      "refle": 2133,
      "lling": 2134,
      "threw": 2135,
      "atch": 2136,
      "señor": 2137,
      "ita": 2138,
      "beneath": 2139,
      "rob": 2140,
      "rose": 2141,
      "almost": 2142,
      "onest": 2143,
      "neither": 2144,
      "chime": 2145,
      "weather": 2146,
      "ticket": 2147,
      "shout": 2148,
      "shame": 2149,
      "doing": 2150,
      "aves": 2151,
      "avey": 2152,
      "rything": 2153,
      "degree": 2154,
      "Heard": 2155,
      "arter": 2156,
      "hate": 2157,
      "plan": 2158,
      "sayin": 2159,
      "angels": 2160,
      "ters": 2161,
      "himself": 2162,
      "anywhere": 2163,
      "brown": 2164,
      "grass": 2165,
      "fold": 2166,
      "complain": 2167,
      "heads": 2168,
      "spark": 2169,
      "news": 2170,
      "skies": 2171,
      "prin": 2172,
      "doorway": 2173,
      "callin": 2174,
      "fully": 2175,
      "Throw": 2176,
      "clock": 2177,
      "fallin": 2178,
      "expect": 2179,
      "order": 2180,
      "sugar": 2181,
      "suffer": 2182,
      "cars": 2183,
      "critic": 2184,
      "mighty": 2185,
      "girls": 2186,
      "scream": 2187,
      "sleeping": 2188,
      "stepped": 2189,
      "Sayin": 2190,
      "lines": 2191,
      "paint": 2192,
      "Blue": 2193,
      "pawn": 2194,
      "golden": 2195,
      "job": 2196,
      "joy": 2197,
      "judg": 2198,
      "minute": 2199,
      "middle": 2200,
      "passed": 2201,
      "passes": 2202,
      "happened": 2203,
      "learned": 2204,
      "mountains": 2205,
      "funny": 2206,
      "flesh": 2207,
      "picked": 2208,
      "risin": 2209,
      "piece": 2210,
      "riding": 2211,
      "crime": 2212,
      "strife": 2213,
      "beautiful": 2214,
      "Sadie": 2215,
      "dancing": 2216,
      "gypsy": 2217,
      "murder": 2218,
      "tongue": 2219,
      "person": 2220,
      "altar": 2221,
      "boots": 2222,
      "World": 2223,
      "esterday": 2224,
      "special": 2225,
      "breathe": 2226,
      "Corrina": 2227,
      "Keep": 2228,
      "moment": 2229,
      "Ad": 2230,
      "Bay": 2231,
      "Dark": 2232,
      "Davey": 2233,
      "First": 2234,
      "Farewell": 2235,
      "Give": 2236,
      "Gold": 2237,
      "Girl": 2238,
      "Kings": 2239,
      "Knock": 2240,
      "Mu": 2241,
      "Make": 2242,
      "Mother": 2243,
      "Mont": 2244,
      "Right": 2245,
      "Str": 2246,
      "Saved": 2247,
      "Talkin": 2248,
      "ased": 2249,
      "bt": 2250,
      "bust": 2251,
      "bash": 2252,
      "ca": 2253,
      "caught": 2254,
      "climb": 2255,
      "din": 2256,
      "dry": 2257,
      "double": 2258,
      "daughter": 2259,
      "east": 2260,
      "fam": 2261,
      "fail": 2262,
      "fact": 2263,
      "gher": 2264,
      "iet": 2265,
      "ife": 2266,
      "ient": 2267,
      "ience": 2268,
      "ky": 2269,
      "lord": 2270,
      "lves": 2271,
      "loud": 2272,
      "mor": 2273,
      "mas": 2274,
      "mus": 2275,
      "makin": 2276,
      "nature": 2277,
      "ooh": 2278,
      "pat": 2279,
      "pair": 2280,
      "pity": 2281,
      "rin": 2282,
      "rad": 2283,
      "rang": 2284,
      "rum": 2285,
      "tail": 2286,
      "wis": 2287,
      "wus": 2288,
      "theart": 2289,
      "ango": 2290,
      "oned": 2291,
      "thir": 2292,
      "stairs": 2293,
      "owed": 2294,
      "seat": 2295,
      "edge": 2296,
      "erness": 2297,
      "kept": 2298,
      "roam": 2299,
      "myster": 2300,
      "idge": 2301,
      "ached": 2302,
      "wire": 2303,
      "forty": 2304,
      "outa": 2305,
      "weary": 2306,
      "irt": 2307,
      "dered": 2308,
      "Here": 2309,
      "blan": 2310,
      "cool": 2311,
      "seemed": 2312,
      "hop": 2313,
      "hobo": 2314,
      "angled": 2315,
      "bother": 2316,
      "nights": 2317,
      "poin": 2318,
      "point": 2319,
      "poison": 2320,
      "ices": 2321,
      "woke": 2322,
      "brought": 2323,
      "telling": 2324,
      "undown": 2325,
      "taken": 2326,
      "spied": 2327,
      "imm": 2328,
      "windows": 2329,
      "bury": 2330,
      "buried": 2331,
      "playin": 2332,
      "played": 2333,
      "Whatever": 2334,
      "calls": 2335,
      "dime": 2336,
      "memor": 2337,
      "fuse": 2338,
      "Once": 2339,
      "Think": 2340,
      "olation": 2341,
      "exact": 2342,
      "Lily": 2343,
      "waters": 2344,
      "Whose": 2345,
      "singin": 2346,
      "begin": 2347,
      "swear": 2348,
      "udes": 2349,
      "write": 2350,
      "crown": 2351,
      "crack": 2352,
      "Roman": 2353,
      "flashing": 2354,
      "tale": 2355,
      "scene": 2356,
      "killer": 2357,
      "Mobile": 2358,
      "sittin": 2359,
      "trem": 2360,
      "dying": 2361,
      "answer": 2362,
      "pretend": 2363,
      "souls": 2364,
      "truck": 2365,
      "steal": 2366,
      "cious": 2367,
      "guns": 2368,
      "Remember": 2369,
      "Peggy": 2370,
      "month": 2371,
      "glass": 2372,
      "phone": 2373,
      "wearing": 2374,
      "paradise": 2375,
      "pressing": 2376,
      "Poor": 2377,
      "Jimmy": 2378,
      "beauty": 2379,
      "Underneath": 2380,
      "rief": 2381,
      "forgotten": 2382,
      "destroy": 2383,
      "Desolation": 2384,
      "desert": 2385,
      "thief": 2386,
      "offee": 2387,
      "satisfied": 2388,
      "different": 2389,
      "Satan": 2390,
      "breeze": 2391,
      "mirr": 2392,
      "exactly": 2393,
      "Gre": 2394,
      "Gates": 2395,
      "Idi": 2396,
      "Jones": 2397,
      "Lay": 2398,
      "Long": 2399,
      "Last": 2400,
      "Lady": 2401,
      "Ma": 2402,
      "More": 2403,
      "Pri": 2404,
      "Rain": 2405,
      "San": 2406,
      "Sil": 2407,
      "Ton": 2408,
      "Wing": 2409,
      "War": 2410,
      "Walk": 2411,
      "Went": 2412,
      "Watch": 2413,
      "Yer": 2414,
      "ahead": 2415,
      "awhile": 2416,
      "chen": 2417,
      "cher": 2418,
      "coffee": 2419,
      "dou": 2420,
      "dare": 2421,
      "etheart": 2422,
      "fy": 2423,
      "fit": 2424,
      "fif": 2425,
      "ga": 2426,
      "ging": 2427,
      "ger": 2428,
      "gli": 2429,
      "gaz": 2430,
      "gates": 2431,
      "hon": 2432,
      "hun": 2433,
      "horn": 2434,
      "honest": 2435,
      "iv": 2436,
      "ips": 2437,
      "kis": 2438,
      "kings": 2439,
      "lamb": 2440,
      "mi": 2441,
      "mand": 2442,
      "nat": 2443,
      "pig": 2444,
      "pony": 2445,
      "save": 2446,
      "sna": 2447,
      "spl": 2448,
      "squ": 2449,
      "scho": 2450,
      "saved": 2451,
      "tem": 2452,
      "ull": 2453,
      "vive": 2454,
      "vation": 2455,
      "wing": 2456,
      "wag": 2457,
      "ward": 2458,
      "warn": 2459,
      "yard": 2460,
      "heal": 2461,
      "inno": 2462,
      "rel": 2463,
      "remind": 2464,
      "melo": 2465,
      "thunder": 2466,
      "sty": 2467,
      "ating": 2468,
      "attered": 2469,
      "org": 2470,
      "arise": 2471,
      "lene": 2472,
      "itchen": 2473,
      "isn": 2474,
      "asses": 2475,
      "lic": 2476,
      "lips": 2477,
      "adv": 2478,
      "ading": 2479,
      "ida": 2480,
      "aly": 2481,
      "rich": 2482,
      "whore": 2483,
      "aint": 2484,
      "shut": 2485,
      "naked": 2486,
      "lyn": 2487,
      "defe": 2488,
      "deck": 2489,
      "deceive": 2490,
      "someplace": 2491,
      "Heavy": 2492,
      "higher": 2493,
      "blade": 2494,
      "coll": 2495,
      "cops": 2496,
      "whatever": 2497,
      "apple": 2498,
      "board": 2499,
      "boss": 2500,
      "pos": 2501,
      "post": 2502,
      "usband": 2503,
      "bride": 2504,
      "blew": 2505,
      "longer": 2506,
      "aths": 2507,
      "consc": 2508,
      "everyone": 2509,
      "comple": 2510,
      "reek": 2511,
      "turns": 2512,
      "turnin": 2513,
      "doors": 2514,
      "Star": 2515,
      "drag": 2516,
      "Thunder": 2517,
      "guard": 2518,
      "begun": 2519,
      "sweetheart": 2520,
      "spect": 2521,
      "Rose": 2522,
      "flash": 2523,
      "green": 2524,
      "Move": 2525,
      "match": 2526,
      "prop": 2527,
      "Says": 2528,
      "ltit": 2529,
      "flyin": 2530,
      "knife": 2531,
      "Jolene": 2532,
      "hills": 2533,
      "steel": 2534,
      "nearly": 2535,
      "True": 2536,
      "moved": 2537,
      "fighting": 2538,
      "passing": 2539,
      "Highway": 2540,
      "Highlands": 2541,
      "brains": 2542,
      "speaks": 2543,
      "happening": 2544,
      "laws": 2545,
      "summertime": 2546,
      "books": 2547,
      "picnic": 2548,
      "covered": 2549,
      "survive": 2550,
      "visions": 2551,
      "darlin": 2552,
      "shooting": 2553,
      "queens": 2554,
      "pulled": 2555,
      "enemy": 2556,
      "haun": 2557,
      "rails": 2558,
      "fingers": 2559,
      "swim": 2560,
      "sinking": 2561,
      "Marie": 2562,
      "yearnin": 2563,
      "confess": 2564,
      "strengthen": 2565,
      "suitcase": 2566,
      "human": 2567,
      "crawl": 2568,
      "victory": 2569,
      "soldier": 2570,
      "club": 2571,
      "suckling": 2572,
      "chimes": 2573,
      "Idiot": 2574,
      "After": 2575,
      "Bout": 2576,
      "Con": 2577,
      "Call": 2578,
      "City": 2579,
      "Dream": 2580,
      "Diam": 2581,
      "Daddy": 2582,
      "Each": 2583,
      "Far": 2584,
      "Fall": 2585,
      "Hold": 2586,
      "James": 2587,
      "Mc": 2588,
      "Must": 2589,
      "Mountain": 2590,
      "Pres": 2591,
      "Paths": 2592,
      "Sure": 2593,
      "Seven": 2594,
      "South": 2595,
      "Tangled": 2596,
      "Yet": 2597,
      "ator": 2598,
      "bid": 2599,
      "bal": 2600,
      "cou": 2601,
      "cig": 2602,
      "cess": 2603,
      "eth": 2604,
      "eight": 2605,
      "either": 2606,
      "fur": 2607,
      "fig": 2608,
      "fist": 2609,
      "faces": 2610,
      "gin": 2611,
      "gome": 2612,
      "gif": 2613,
      "husband": 2614,
      "ises": 2615,
      "jum": 2616,
      "kitchen": 2617,
      "mach": 2618,
      "mary": 2619,
      "maid": 2620,
      "master": 2621,
      "nity": 2622,
      "pet": 2623,
      "ron": 2624,
      "rap": 2625,
      "sle": 2626,
      "sword": 2627,
      "sundown": 2628,
      "trip": 2629,
      "ured": 2630,
      "vous": 2631,
      "wed": 2632,
      "zed": 2633,
      "heed": 2634,
      "anish": 2635,
      "recall": 2636,
      "reali": 2637,
      "respect": 2638,
      "mead": 2639,
      "means": 2640,
      "thick": 2641,
      "vest": 2642,
      "leavin": 2643,
      "leaving": 2644,
      "ited": 2645,
      "belong": 2646,
      "betray": 2647,
      "ery": 2648,
      "otion": 2649,
      "allow": 2650,
      "ides": 2651,
      "acc": 2652,
      "loy": 2653,
      "chill": 2654,
      "noon": 2655,
      "west": 2656,
      "weight": 2657,
      "shar": 2658,
      "short": 2659,
      "union": 2660,
      "unkind": 2661,
      "nail": 2662,
      "deed": 2663,
      "oked": 2664,
      "somewhere": 2665,
      "pend": 2666,
      "blaz": 2667,
      "cook": 2668,
      "seeing": 2669,
      "places": 2670,
      "shelf": 2671,
      "saying": 2672,
      "umb": 2673,
      "Took": 2674,
      "Tolling": 2675,
      "bom": 2676,
      "ify": 2677,
      "whose": 2678,
      "wherever": 2679,
      "brings": 2680,
      "bridge": 2681,
      "aul": 2682,
      "feels": 2683,
      "feelings": 2684,
      "fol": 2685,
      "dreamed": 2686,
      "needs": 2687,
      "space": 2688,
      "spent": 2689,
      "imme": 2690,
      "gives": 2691,
      "multit": 2692,
      "quarter": 2693,
      "quiet": 2694,
      "Forget": 2695,
      "proud": 2696,
      "prison": 2697,
      "calling": 2698,
      "hardly": 2699,
      "underneath": 2700,
      "cheek": 2701,
      "Things": 2702,
      "ols": 2703,
      "exist": 2704,
      "holding": 2705,
      "runs": 2706,
      "workin": 2707,
      "gged": 2708,
      "kinds": 2709,
      "ladies": 2710,
      "flag": 2711,
      "greed": 2712,
      "William": 2713,
      "drivin": 2714,
      "situ": 2715,
      "sitting": 2716,
      "innin": 2717,
      "disgrace": 2718,
      "prove": 2719,
      "proper": 2720,
      "ancy": 2721,
      "showed": 2722,
      "starts": 2723,
      "tiness": 2724,
      "dyin": 2725,
      "Blind": 2726,
      "prayers": 2727,
      "curtain": 2728,
      "push": 2729,
      "kingdom": 2730,
      "Reed": 2731,
      "voices": 2732,
      "insane": 2733,
      "followed": 2734,
      "Dead": 2735,
      "wilderness": 2736,
      "busy": 2737,
      "married": 2738,
      "rising": 2739,
      "lovers": 2740,
      "pearls": 2741,
      "north": 2742,
      "captain": 2743,
      "darling": 2744,
      "pier": 2745,
      "small": 2746,
      "opard": 2747,
      "Rubin": 2748,
      "spoke": 2749,
      "whisper": 2750,
      "chains": 2751,
      "tongues": 2752,
      "Goodbye": 2753,
      "finger": 2754,
      "Better": 2755,
      "Spanish": 2756,
      "burst": 2757,
      "battles": 2758,
      "sticks": 2759,
      "Standing": 2760,
      "Quinn": 2761,
      "damn": 2762,
      "cruel": 2763,
      "lonely": 2764,
      "view": 2765,
      "American": 2766,
      "Bird": 2767,
      "believable": 2768,
      "diamond": 2769,
      "certain": 2770,
      "palm": 2771,
      "salvation": 2772,
      "Montgome": 2773,
      "music": 2774,
      "blanket": 2775,
      "memories": 2776,
      "Priest": 2777,
      "Tonight": 2778,
      "doubt": 2779,
      "kissed": 2780,
      "natur": 2781,
      "wagon": 2782,
      "melody": 2783,
      "prophet": 2784,
      "Diamond": 2785,
      "Montgomery": 2786,
      "Ap": 2787,
      "Bell": 2788,
      "Cry": 2789,
      "Chi": 2790,
      "Cap": 2791,
      "Count": 2792,
      "Dr": 2793,
      "Ex": 2794,
      "Eng": 2795,
      "Five": 2796,
      "Gr": 2797,
      "Hang": 2798,
      "Lu": 2799,
      "Low": 2800,
      "Light": 2801,
      "Late": 2802,
      "Mer": 2803,
      "Mad": 2804,
      "Made": 2805,
      "Mex": 2806,
      "Over": 2807,
      "Our": 2808,
      "Pas": 2809,
      "Pap": 2810,
      "Swe": 2811,
      "Six": 2812,
      "Saw": 2813,
      "Tod": 2814,
      "Twas": 2815,
      "Tiny": 2816,
      "Trails": 2817,
      "Vale": 2818,
      "Would": 2819,
      "Walkin": 2820,
      "aled": 2821,
      "ban": 2822,
      "bill": 2823,
      "bag": 2824,
      "base": 2825,
      "bank": 2826,
      "border": 2827,
      "cot": 2828,
      "cure": 2829,
      "cage": 2830,
      "dim": 2831,
      "danger": 2832,
      "fet": 2833,
      "ffe": 2834,
      "fade": 2835,
      "fought": 2836,
      "flu": 2837,
      "fence": 2838,
      "farewell": 2839,
      "gi": 2840,
      "gas": 2841,
      "gum": 2842,
      "ham": 2843,
      "ili": 2844,
      "iot": 2845,
      "ibr": 2846,
      "ique": 2847,
      "lor": 2848,
      "oth": 2849,
      "pour": 2850,
      "pants": 2851,
      "rot": 2852,
      "rant": 2853,
      "swall": 2854,
      "tur": 2855,
      "taught": 2856,
      "twel": 2857,
      "ug": 2858,
      "vac": 2859,
      "ware": 2860,
      "winter": 2861,
      "wards": 2862,
      "’?": 2863,
      "hel": 2864,
      "oul": 2865,
      "rec": 2866,
      "ress": 2867,
      "ona": 2868,
      "tol": 2869,
      "toes": 2870,
      "vent": 2871,
      "stare": 2872,
      "stic": 2873,
      "stud": 2874,
      "stumble": 2875,
      "inger": 2876,
      "ingale": 2877,
      "lem": 2878,
      "least": 2879,
      "lect": 2880,
      "leopard": 2881,
      "selves": 2882,
      "itan": 2883,
      "itch": 2884,
      "ities": 2885,
      "bent": 2886,
      "ished": 2887,
      "asure": 2888,
      "kest": 2889,
      "lid": 2890,
      "lion": 2891,
      "lice": 2892,
      "liked": 2893,
      "ades": 2894,
      "roo": 2895,
      "rove": 2896,
      "escape": 2897,
      "mystic": 2898,
      "ache": 2899,
      "lood": 2900,
      "loom": 2901,
      "Them": 2902,
      "ality": 2903,
      "alous": 2904,
      "force": 2905,
      "fortune": 2906,
      "weak": 2907,
      "tick": 2908,
      "shade": 2909,
      "ships": 2910,
      "irons": 2911,
      "univer": 2912,
      "unbelievable": 2913,
      "arest": 2914,
      "akes": 2915,
      "deaf": 2916,
      "cease": 2917,
      "somehow": 2918,
      "soci": 2919,
      "trump": 2920,
      "haven": 2921,
      "loves": 2922,
      "tooth": 2923,
      "apo": 2924,
      "aper": 2925,
      "moving": 2926,
      "nightingale": 2927,
      "usion": 2928,
      "brass": 2929,
      "thinks": 2930,
      "auth": 2931,
      "ately": 2932,
      "food": 2933,
      "ems": 2934,
      "handle": 2935,
      "needed": 2936,
      "spell": 2937,
      "spring": 2938,
      "imag": 2939,
      "livered": 2940,
      "dire": 2941,
      "sung": 2942,
      "drain": 2943,
      "drum": 2944,
      "drunk": 2945,
      "fused": 2946,
      "strings": 2947,
      "falls": 2948,
      "except": 2949,
      "Livin": 2950,
      "sub": 2951,
      "carried": 2952,
      "guy": 2953,
      "guil": 2954,
      "fix": 2955,
      "tele": 2956,
      "teach": 2957,
      "sweep": 2958,
      "serv": 2959,
      "wrote": 2960,
      "working": 2961,
      "dreaming": 2962,
      "bloody": 2963,
      "bloom": 2964,
      "changing": 2965,
      "shoe": 2966,
      "rolled": 2967,
      "flame": 2968,
      "Does": 2969,
      "stayed": 2970,
      "stopped": 2971,
      "probab": 2972,
      "songs": 2973,
      "rule": 2974,
      "painted": 2975,
      "clown": 2976,
      "cursed": 2977,
      "quest": 2978,
      "flood": 2979,
      "birth": 2980,
      "birds": 2981,
      "knocked": 2982,
      "priest": 2983,
      "wheels": 2984,
      "Leave": 2985,
      "Leavin": 2986,
      "final": 2987,
      "glory": 2988,
      "glasses": 2989,
      "opened": 2990,
      "fools": 2991,
      "Johanna": 2992,
      "smiled": 2993,
      "Hopin": 2994,
      "kids": 2995,
      "knee": 2996,
      "content": 2997,
      "sailin": 2998,
      "Char": 2999,
      "Didn": 3000,
      "fears": 3001,
      "Outside": 3002,
      "jealous": 3003,
      "railroad": 3004,
      "iously": 3005,
      "swift": 3006,
      "Sugar": 3007,
      "hallway": 3008,
      "hidden": 3009,
      "bullet": 3010,
      "strength": 3011,
      "fields": 3012,
      "yellow": 3013,
      "ricane": 3014,
      "waste": 3015,
      "Yea": 3016,
      "silence": 3017,
      "simple": 3018,
      "wander": 3019,
      "Roads": 3020,
      "Homer": 3021,
      "rhyme": 3022,
      "criticize": 3023,
      "judgment": 3024,
      "Muses": 3025,
      "family": 3026,
      "radio": 3027,
      "thirty": 3028,
      "gazed": 3029,
      "temper": 3030,
      "colle": 3031,
      "conscience": 3032,
      "President": 3033,
      "jumped": 3034,
      "realize": 3035,
      "sharp": 3036,
      "folks": 3037,
      "Mexi": 3038,
      "Papa": 3039,
      "Today": 3040,
      "twelve": 3041,
      "probably": 3042,
      ".\"": 3043,
      "61": 3044,
      "Across": 3045,
      "Back": 3046,
      "Bud": 3047,
      "Bru": 3048,
      "Blood": 3049,
      "Cur": 3050,
      "Dust": 3051,
      "Dur": 3052,
      "El": 3053,
      "Ear": 3054,
      "Fore": 3055,
      "Ge": 3056,
      "Gon": 3057,
      "Greek": 3058,
      "Ind": 3059,
      "Je": 3060,
      "Jer": 3061,
      "Len": 3062,
      "Lone": 3063,
      "Might": 3064,
      "Nor": 3065,
      "Par": 3066,
      "Per": 3067,
      "Pick": 3068,
      "Rome": 3069,
      "River": 3070,
      "Rita": 3071,
      "Sin": 3072,
      "Send": 3073,
      "Shad": 3074,
      "Show": 3075,
      "Sign": 3076,
      "Summer": 3077,
      "Ta": 3078,
      "Ugli": 3079,
      "Wall": 3080,
      "Yesterday": 3081,
      "bin": 3082,
      "bum": 3083,
      "bought": 3084,
      "bump": 3085,
      "cu": 3086,
      "cor": 3087,
      "cand": 3088,
      "cas": 3089,
      "cell": 3090,
      "card": 3091,
      "cus": 3092,
      "clay": 3093,
      "candy": 3094,
      "cence": 3095,
      "ded": 3096,
      "det": 3097,
      "dden": 3098,
      "dump": 3099,
      "daddy": 3100,
      "eas": 3101,
      "eous": 3102,
      "fare": 3103,
      "fake": 3104,
      "fright": 3105,
      "fountain": 3106,
      "flies": 3107,
      "fancy": 3108,
      "gen": 3109,
      "gather": 3110,
      "groom": 3111,
      "hail": 3112,
      "ians": 3113,
      "ming": 3114,
      "mare": 3115,
      "mark": 3116,
      "mail": 3117,
      "nine": 3118,
      "nie": 3119,
      "oo": 3120,
      "pse": 3121,
      "pun": 3122,
      "pump": 3123,
      "rit": 3124,
      "rings": 3125,
      "rage": 3126,
      "sne": 3127,
      "sway": 3128,
      "tall": 3129,
      "tough": 3130,
      "tumbled": 3131,
      "uh": 3132,
      "ual": 3133,
      "ude": 3134,
      "uck": 3135,
      "vide": 3136,
      "vine": 3137,
      "vol": 3138,
      "wet": 3139,
      "wore": 3140,
      "wers": 3141,
      "wings": 3142,
      "held": 3143,
      "inste": 3144,
      "invest": 3145,
      "anity": 3146,
      "ret": 3147,
      "receive": 3148,
      "reached": 3149,
      "thri": 3150,
      "stit": 3151,
      "stant": 3152,
      "station": 3153,
      "stones": 3154,
      "atter": 3155,
      "arri": 3156,
      "anded": 3157,
      "legs": 3158,
      "seng": 3159,
      "bear": 3160,
      "beast": 3161,
      "below": 3162,
      "bered": 3163,
      "ism": 3164,
      "eding": 3165,
      "eral": 3166,
      "asing": 3167,
      "aside": 3168,
      "kes": 3169,
      "lick": 3170,
      "livin": 3171,
      "rope": 3172,
      "rops": 3173,
      "rocks": 3174,
      "escap": 3175,
      "eng": 3176,
      "ense": 3177,
      "enti": 3178,
      "ided": 3179,
      "aced": 3180,
      "acts": 3181,
      "aches": 3182,
      "log": 3183,
      "lock": 3184,
      "loso": 3185,
      "loser": 3186,
      "locked": 3187,
      "alth": 3188,
      "alty": 3189,
      "utes": 3190,
      "vers": 3191,
      "wig": 3192,
      "wicked": 3193,
      "riff": 3194,
      "Young": 3195,
      "owned": 3196,
      "cane": 3197,
      "ching": 3198,
      "chances": 3199,
      "wealth": 3200,
      "washed": 3201,
      "ties": 3202,
      "doom": 3203,
      "mans": 3204,
      "fection": 3205,
      "illed": 3206,
      "aming": 3207,
      "lyin": 3208,
      "dem": 3209,
      "delivered": 3210,
      "gotten": 3211,
      "Hear": 3212,
      "sage": 3213,
      "som": 3214,
      "pee": 3215,
      "thered": 3216,
      "seek": 3217,
      "plane": 3218,
      "shed": 3219,
      "holes": 3220,
      "ague": 3221,
      "ardrops": 3222,
      "ilin": 3223,
      "iling": 3224,
      "anted": 3225,
      "angle": 3226,
      "terri": 3227,
      "umst": 3228,
      "ended": 3229,
      "movie": 3230,
      "whom": 3231,
      "righteous": 3232,
      "pool": 3233,
      "pocket": 3234,
      "aker": 3235,
      "wolf": 3236,
      "thrown": 3237,
      "bles": 3238,
      "raw": 3239,
      "grown": 3240,
      "grate": 3241,
      "forest": 3242,
      "foreign": 3243,
      "contain": 3244,
      "headed": 3245,
      "buck": 3246,
      "quer": 3247,
      "Forty": 3248,
      "Ste": 3249,
      "Strip": 3250,
      "drums": 3251,
      "precious": 3252,
      "cheat": 3253,
      "Than": 3254,
      "closed": 3255,
      "issip": 3256,
      "towns": 3257,
      "oughta": 3258,
      "test": 3259,
      "teeth": 3260,
      "Been": 3261,
      "sings": 3262,
      "singing": 3263,
      "begins": 3264,
      "sweat": 3265,
      "thanks": 3266,
      "speed": 3267,
      "crash": 3268,
      "worked": 3269,
      "Isis": 3270,
      "kinda": 3271,
      "staying": 3272,
      "Comes": 3273,
      "sition": 3274,
      "staring": 3275,
      "ringing": 3276,
      "sleepin": 3277,
      "ancient": 3278,
      "emptiness": 3279,
      "liness": 3280,
      "Shall": 3281,
      "Should": 3282,
      "creation": 3283,
      "flying": 3284,
      "answers": 3285,
      "pale": 3286,
      "rivers": 3287,
      "Joe": 3288,
      "deny": 3289,
      "steep": 3290,
      "steady": 3291,
      "crossroads": 3292,
      "Mississip": 3293,
      "restless": 3294,
      "drinks": 3295,
      "monkey": 3296,
      "whether": 3297,
      "meaning": 3298,
      "phones": 3299,
      "Russ": 3300,
      "followin": 3301,
      "fourth": 3302,
      "gambling": 3303,
      "sounds": 3304,
      "trial": 3305,
      "trigg": 3306,
      "tricks": 3307,
      "agged": 3308,
      "shinin": 3309,
      "Señor": 3310,
      "marry": 3311,
      "week": 3312,
      "Rolling": 3313,
      "pieces": 3314,
      "beating": 3315,
      "Until": 3316,
      "Wasn": 3317,
      "ized": 3318,
      "surpri": 3319,
      "surround": 3320,
      "senses": 3321,
      "visible": 3322,
      "darkest": 3323,
      "nerve": 3324,
      "travel": 3325,
      "travelin": 3326,
      "Build": 3327,
      "Judge": 3328,
      "whiskey": 3329,
      "lucky": 3330,
      "Trying": 3331,
      "murdered": 3332,
      "listening": 3333,
      "animal": 3334,
      "struction": 3335,
      "Couldn": 3336,
      "promise": 3337,
      "missed": 3338,
      "magic": 3339,
      "softly": 3340,
      "Comm": 3341,
      "company": 3342,
      "grabbed": 3343,
      "explode": 3344,
      "circumst": 3345,
      "gutter": 3346,
      "gods": 3347,
      "viole": 3348,
      "secret": 3349,
      "secrets": 3350,
      "tombstone": 3351,
      "Arabian": 3352,
      "cabin": 3353,
      "sacred": 3354,
      "wounded": 3355,
      "Golden": 3356,
      "mystery": 3357,
      "mirror": 3358,
      "split": 3359,
      "innocence": 3360,
      "style": 3361,
      "Rosemary": 3362,
      "haunted": 3363,
      "figure": 3364,
      "wedding": 3365,
      "meadow": 3366,
      "blazing": 3367,
      "multitudes": 3368,
      "situation": 3369,
      "property": 3370,
      "Apple": 3371,
      "Sweet": 3372,
      "hammer": 3373,
      "lectri": 3374,
      "itanic": 3375,
      "rooster": 3376,
      "society": 3377,
      "trumpet": 3378,
      "author": 3379,
      "Mexico": 3380,
      "Bruce": 3381,
      "Early": 3382,
      "Lenny": 3383,
      "Ugliest": 3384,
      "easily": 3385,
      "thrill": 3386,
      "Mississippi": 3387,
      "!)": 3388,
      "10": 3389,
      "Abe": 3390,
      "Bow": 3391,
      "Che": 3392,
      "Cad": 3393,
      "Chang": 3394,
      "Dis": 3395,
      "Em": 3396,
      "Four": 3397,
      "Gy": 3398,
      "Gar": 3399,
      "Gibr": 3400,
      "Hou": 3401,
      "Hor": 3402,
      "Hard": 3403,
      "Half": 3404,
      "Ju": 3405,
      "Jord": 3406,
      "June": 3407,
      "Lin": 3408,
      "Lonesome": 3409,
      "Mag": 3410,
      "Mine": 3411,
      "Morn": 3412,
      "Net": 3413,
      "Other": 3414,
      "Park": 3415,
      "Peter": 3416,
      "Ram": 3417,
      "Ride": 3418,
      "Son": 3419,
      "Sit": 3420,
      "Sho": 3421,
      "Same": 3422,
      "Slow": 3423,
      "Sear": 3424,
      "Slip": 3425,
      "Sorry": 3426,
      "Sky": 3427,
      "Tears": 3428,
      "Titanic": 3429,
      "Wind": 3430,
      "Water": 3431,
      "Zan": 3432,
      "abe": 3433,
      "bou": 3434,
      "bun": 3435,
      "bang": 3436,
      "bble": 3437,
      "bail": 3438,
      "bite": 3439,
      "brief": 3440,
      "cts": 3441,
      "crip": 3442,
      "daught": 3443,
      "dale": 3444,
      "drove": 3445,
      "ef": 3446,
      "egg": 3447,
      "echo": 3448,
      "furn": 3449,
      "fic": 3450,
      "fav": 3451,
      "gro": 3452,
      "gall": 3453,
      "glim": 3454,
      "grief": 3455,
      "gimme": 3456,
      "hou": 3457,
      "jing": 3458,
      "jangle": 3459,
      "knot": 3460,
      "lan": 3461,
      "lon": 3462,
      "lar": 3463,
      "lake": 3464,
      "lace": 3465,
      "lish": 3466,
      "lamp": 3467,
      "laughter": 3468,
      "mm": 3469,
      "mart": 3470,
      "mast": 3471,
      "mask": 3472,
      "mix": 3473,
      "nes": 3474,
      "nur": 3475,
      "nia": 3476,
      "oid": 3477,
      "osa": 3478,
      "pan": 3479,
      "por": 3480,
      "pli": 3481,
      "pent": 3482,
      "park": 3483,
      "page": 3484,
      "praise": 3485,
      "rk": 3486,
      "ram": 3487,
      "sir": 3488,
      "scar": 3489,
      "sses": 3490,
      "sigh": 3491,
      "sque": 3492,
      "scars": 3493,
      "sinnin": 3494,
      "tone": 3495,
      "tab": 3496,
      "tun": 3497,
      "tide": 3498,
      "temp": 3499,
      "tank": 3500,
      "twink": 3501,
      "yesterday": 3502,
      "zen": 3503,
      "zamb": 3504,
      "zinger": 3505,
      "’—": 3506,
      "heels": 3507,
      "healed": 3508,
      "rele": 3509,
      "rend": 3510,
      "reli": 3511,
      "repe": 3512,
      "regre": 3513,
      "onds": 3514,
      "meat": 3515,
      "mess": 3516,
      "thro": 3517,
      "thread": 3518,
      "tood": 3519,
      "vel": 3520,
      "ston": 3521,
      "stall": 3522,
      "stal": 3523,
      "stoned": 3524,
      "atform": 3525,
      "arry": 3526,
      "ler": 3527,
      "lev": 3528,
      "lend": 3529,
      "leap": 3530,
      "leather": 3531,
      "seas": 3532,
      "season": 3533,
      "series": 3534,
      "iting": 3535,
      "ital": 3536,
      "bein": 3537,
      "beach": 3538,
      "belt": 3539,
      "ero": 3540,
      "lifet": 3541,
      "ota": 3542,
      "roof": 3543,
      "roses": 3544,
      "ened": 3545,
      "riot": 3546,
      "rica": 3547,
      "ney": 3548,
      "whirl": 3549,
      "odds": 3550,
      "chin": 3551,
      "cham": 3552,
      "webs": 3553,
      "shif": 3554,
      "shape": 3555,
      "shakin": 3556,
      "irts": 3557,
      "upid": 3558,
      "abbit": 3559,
      "illac": 3560,
      "aret": 3561,
      "ammed": 3562,
      "lying": 3563,
      "deserve": 3564,
      "likes": 3565,
      "acks": 3566,
      "saving": 3567,
      "sol": 3568,
      "solid": 3569,
      "pest": 3570,
      "blink": 3571,
      "bluff": 3572,
      "thern": 3573,
      "coin": 3574,
      "cost": 3575,
      "tra": 3576,
      "trout": 3577,
      "trap": 3578,
      "seein": 3579,
      "hatred": 3580,
      "eling": 3581,
      "placed": 3582,
      "platform": 3583,
      "hog": 3584,
      "hook": 3585,
      "hollow": 3586,
      "note": 3587,
      "worn": 3588,
      "worst": 3589,
      "aged": 3590,
      "lovely": 3591,
      "ila": 3592,
      "ility": 3593,
      "apers": 3594,
      "button": 3595,
      "moan": 3596,
      "lowlands": 3597,
      "lowered": 3598,
      "poss": 3599,
      "position": 3600,
      "ives": 3601,
      "throne": 3602,
      "bran": 3603,
      "brave": 3604,
      "igrant": 3605,
      "bless": 3606,
      "tells": 3607,
      "tellin": 3608,
      "raised": 3609,
      "atered": 3610,
      "erson": 3611,
      "erstood": 3612,
      "grain": 3613,
      "grows": 3614,
      "themselves": 3615,
      "lets": 3616,
      "letter": 3617,
      "Were": 3618,
      "lightning": 3619,
      "understood": 3620,
      "confused": 3621,
      "stories": 3622,
      "command": 3623,
      "howling": 3624,
      "needle": 3625,
      "spare": 3626,
      "prof": 3627,
      "Stri": 3628,
      "dies": 3629,
      "preach": 3630,
      "pressed": 3631,
      "preacher": 3632,
      "stranded": 3633,
      "Thought": 3634,
      "Lost": 3635,
      "sudden": 3636,
      "blowed": 3637,
      "guards": 3638,
      "teardrops": 3639,
      "Beli": 3640,
      "holdin": 3641,
      "landlord": 3642,
      "dreamin": 3643,
      "waits": 3644,
      "asking": 3645,
      "affection": 3646,
      "changin": 3647,
      "shook": 3648,
      "lazy": 3649,
      "tors": 3650,
      "wallflower": 3651,
      "scen": 3652,
      "scape": 3653,
      "breaks": 3654,
      "Mozamb": 3655,
      "ledge": 3656,
      "driven": 3657,
      "perator": 3658,
      "rainbow": 3659,
      "clerk": 3660,
      "tention": 3661,
      "venant": 3662,
      "venge": 3663,
      "disgu": 3664,
      "flows": 3665,
      "flowed": 3666,
      "sleepy": 3667,
      "rush": 3668,
      "troubled": 3669,
      "blooded": 3670,
      "Need": 3671,
      "badly": 3672,
      "create": 3673,
      "surely": 3674,
      "shotgun": 3675,
      "cloud": 3676,
      "curve": 3677,
      "curse": 3678,
      "curls": 3679,
      "denied": 3680,
      "cute": 3681,
      "freeze": 3682,
      "hurry": 3683,
      "hurts": 3684,
      "Gotta": 3685,
      "Resent": 3686,
      "party": 3687,
      "partner": 3688,
      "afternoon": 3689,
      "serves": 3690,
      "joke": 3691,
      "Bob": 3692,
      "Both": 3693,
      "Leaving": 3694,
      "minutes": 3695,
      "barbed": 3696,
      "barrel": 3697,
      "phan": 3698,
      "phony": 3699,
      "choose": 3700,
      "silk": 3701,
      "wears": 3702,
      "following": 3703,
      "Dearest": 3704,
      "reality": 3705,
      "ular": 3706,
      "watchman": 3707,
      "foundation": 3708,
      "Hope": 3709,
      "passion": 3710,
      "shines": 3711,
      "court": 3712,
      "fathers": 3713,
      "hotel": 3714,
      "mission": 3715,
      "slave": 3716,
      "resist": 3717,
      "bitter": 3718,
      "ridin": 3719,
      "Times": 3720,
      "eating": 3721,
      "powder": 3722,
      "sails": 3723,
      "Unto": 3724,
      "despair": 3725,
      "sends": 3726,
      "Upon": 3727,
      "numbered": 3728,
      "bowed": 3729,
      "traveling": 3730,
      "earthly": 3731,
      "ject": 3732,
      "woods": 3733,
      "danced": 3734,
      "building": 3735,
      "pounding": 3736,
      "sells": 3737,
      "drifting": 3738,
      "circle": 3739,
      "mistake": 3740,
      "strugg": 3741,
      "glowin": 3742,
      "harmon": 3743,
      "promised": 3744,
      "promises": 3745,
      "destiny": 3746,
      "Listenin": 3747,
      "jury": 3748,
      "juice": 3749,
      "tearing": 3750,
      "message": 3751,
      "draw": 3752,
      "drawn": 3753,
      "faithful": 3754,
      "Woody": 3755,
      "slide": 3756,
      "slipped": 3757,
      "twisted": 3758,
      "faced": 3759,
      "forgives": 3760,
      "written": 3761,
      "philoso": 3762,
      "silent": 3763,
      "tender": 3764,
      "coln": 3765,
      "pledging": 3766,
      "streams": 3767,
      "Christmas": 3768,
      "Hello": 3769,
      "bricks": 3770,
      "sacri": 3771,
      "reflection": 3772,
      "busted": 3773,
      "moral": 3774,
      "range": 3775,
      "rumors": 3776,
      "hopes": 3777,
      "pointed": 3778,
      "Thinking": 3779,
      "cracked": 3780,
      "months": 3781,
      "Silvio": 3782,
      "Walking": 3783,
      "gaze": 3784,
      "honors": 3785,
      "snake": 3786,
      "school": 3787,
      "license": 3788,
      "complete": 3789,
      "McTell": 3790,
      "cigar": 3791,
      "further": 3792,
      "machine": 3793,
      "betrayed": 3794,
      "Forgetful": 3795,
      "natural": 3796,
      "Grand": 3797,
      "basement": 3798,
      "warehouse": 3799,
      "study": 3800,
      "universe": 3801,
      "direction": 3802,
      "temperature": 3803,
      "Curtain": 3804,
      "Durango": 3805,
      "North": 3806,
      "Since": 3807,
      "Shadows": 3808,
      "Wallflower": 3809,
      "candle": 3810,
      "instead": 3811,
      "investig": 3812,
      "senger": 3813,
      "engine": 3814,
      "demned": 3815,
      "grateful": 3816,
      "trigger": 3817,
      "Cadillac": 3818,
      "Gypsy": 3819,
      "Gibraltar": 3820,
      "Jordan": 3821,
      "Lincoln": 3822,
      "Nettie": 3823,
      "Zanzinger": 3824,
      "crippled": 3825,
      "daughters": 3826,
      "glimpse": 3827,
      "jingle": 3828,
      "mixed": 3829,
      "throat": 3830,
      "lifetime": 3831,
      "chamber": 3832,
      "Mozambique": 3833,
      "philosophi": 3834,
      "Ant": 3835,
      "Aven": 3836,
      "Agar": 3837,
      "Acap": 3838,
      "Again": 3839,
      "Ball": 3840,
      "Burn": 3841,
      "Bear": 3842,
      "Cr": 3843,
      "Cross": 3844,
      "Cali": 3845,
      "Dear": 3846,
      "Dio": 3847,
      "Er": 3848,
      "Eli": 3849,
      "Eter": 3850,
      "Esk": 3851,
      "Egy": 3852,
      "Fr": 3853,
      "Fer": 3854,
      "Find": 3855,
      "Fif": 3856,
      "Freedom": 3857,
      "Gal": 3858,
      "Gate": 3859,
      "Hat": 3860,
      "Har": 3861,
      "Hur": 3862,
      "House": 3863,
      "Haz": 3864,
      "Kid": 3865,
      "Know": 3866,
      "Lim": 3867,
      "Master": 3868,
      "Od": 3869,
      "Own": 3870,
      "Pr": 3871,
      "Pain": 3872,
      "Pray": 3873,
      "Sw": 3874,
      "Ser": 3875,
      "Sam": 3876,
      "Sund": 3877,
      "Sim": 3878,
      "Sail": 3879,
      "Sister": 3880,
      "Still": 3881,
      "Tho": 3882,
      "Talk": 3883,
      "Tough": 3884,
      "Tee": 3885,
      "Twenty": 3886,
      "Wh": 3887,
      "Whe": 3888,
      "Women": 3889,
      "Wants": 3890,
      "ax": 3891,
      "aur": 3892,
      "aim": 3893,
      "awake": 3894,
      "bay": 3895,
      "bod": 3896,
      "bund": 3897,
      "broad": 3898,
      "barn": 3899,
      "bwebs": 3900,
      "cli": 3901,
      "cod": 3902,
      "core": 3903,
      "cil": 3904,
      "cif": 3905,
      "cla": 3906,
      "corr": 3907,
      "dus": 3908,
      "digg": 3909,
      "deter": 3910,
      "een": 3911,
      "ease": 3912,
      "fand": 3913,
      "fis": 3914,
      "fame": 3915,
      "flip": 3916,
      "gn": 3917,
      "gle": 3918,
      "ged": 3919,
      "gri": 3920,
      "glove": 3921,
      "gra": 3922,
      "grip": 3923,
      "gory": 3924,
      "gloom": 3925,
      "havin": 3926,
      "haul": 3927,
      "ial": 3928,
      "imo": 3929,
      "ius": 3930,
      "ired": 3931,
      "ires": 3932,
      "jer": 3933,
      "jung": 3934,
      "junk": 3935,
      "ker": 3936,
      "lag": 3937,
      "lame": 3938,
      "oil": 3939,
      "oak": 3940,
      "oled": 3941,
      "operator": 3942,
      "pis": 3943,
      "pad": 3944,
      "pir": 3945,
      "pare": 3946,
      "ply": 3947,
      "pnot": 3948,
      "ppin": 3949,
      "pip": 3950,
      "papers": 3951,
      "rou": 3952,
      "rust": 3953,
      "rame": 3954,
      "rabbit": 3955,
      "sake": 3956,
      "sus": 3957,
      "sche": 3958,
      "scr": 3959,
      "smiles": 3960,
      "saint": 3961,
      "tu": 3962,
      "tation": 3963,
      "tends": 3964,
      "ugs": 3965,
      "vig": 3966,
      "vity": 3967,
      "virt": 3968,
      "vida": 3969,
      "wit": 3970,
      "wrist": 3971,
      "waves": 3972,
      "watered": 3973,
      "yon": 3974,
      "yuh": 3975,
      "zz": 3976,
      "zes": 3977,
      "hero": 3978,
      "inv": 3979,
      "ined": 3980,
      "inch": 3981,
      "inley": 3982,
      "invisible": 3983,
      "oun": 3984,
      "thee": 3985,
      "reg": 3986,
      "reat": 3987,
      "reck": 3988,
      "reco": 3989,
      "return": 3990,
      "youth": 3991,
      "melt": 3992,
      "tha": 3993,
      "thorn": 3994,
      "thirst": 3995,
      "thrie": 3996,
      "tower": 3997,
      "veil": 3998,
      "stab": 3999,
      "stag": 4000,
      "state": 4001,
      "stupid": 4002,
      "atin": 4003,
      "attoo": 4004,
      "orts": 4005,
      "leans": 4006,
      "sey": 4007,
      "sets": 4008,
      "bery": 4009,
      "nds": 4010,
      "ising": 4011,
      "ering": 4012,
      "ashed": 4013,
      "ashes": 4014,
      "lime": 4015,
      "otel": 4016,
      "adin": 4017,
      "adley": 4018,
      "admit": 4019,
      "roar": 4020,
      "robe": 4021,
      "root": 4022,
      "roman": 4023,
      "enter": 4024,
      "iding": 4025,
      "idiot": 4026,
      "acy": 4027,
      "acing": 4028,
      "accept": 4029,
      "loot": 4030,
      "loose": 4031,
      "These": 4032,
      "alright": 4033,
      "utter": 4034,
      "ution": 4035,
      "vern": 4036,
      "vert": 4037,
      "nel": 4038,
      "forth": 4039,
      "forced": 4040,
      "forward": 4041,
      "fornia": 4042,
      "forsake": 4043,
      "charm": 4044,
      "chose": 4045,
      "charms": 4046,
      "champ": 4047,
      "chased": 4048,
      "nob": 4049,
      "nos": 4050,
      "outlaw": 4051,
      "weir": 4052,
      "weap": 4053,
      "wels": 4054,
      "wash": 4055,
      "tic": 4056,
      "tist": 4057,
      "share": 4058,
      "shirt": 4059,
      "shattered": 4060,
      "docks": 4061,
      "irit": 4062,
      "upt": 4063,
      "upright": 4064,
      "upside": 4065,
      "aband": 4066,
      "ryone": 4067,
      "unload": 4068,
      "fect": 4069,
      "ille": 4070,
      "illusion": 4071,
      "amount": 4072,
      "depend": 4073,
      "okin": 4074,
      "oklyn": 4075,
      "sometime": 4076,
      "Heaven": 4077,
      "Help": 4078,
      "Heading": 4079,
      "safe": 4080,
      "sailed": 4081,
      "justice": 4082,
      "history": 4083,
      "blown": 4084,
      "cop": 4085,
      "tran": 4086,
      "tram": 4087,
      "trance": 4088,
      "plate": 4089,
      "eps": 4090,
      "holl": 4091,
      "hopin": 4092,
      "herd": 4093,
      "Italy": 4094,
      "evers": 4095,
      "ange": 4096,
      "angry": 4097,
      "daylight": 4098,
      "astray": 4099,
      "ples": 4100,
      "pleasure": 4101,
      "umber": 4102,
      "umpin": 4103,
      "backwards": 4104,
      "appro": 4105,
      "apron": 4106,
      "endless": 4107,
      "butter": 4108,
      "anyhow": 4109,
      "mock": 4110,
      "movin": 4111,
      "poll": 4112,
      "pose": 4113,
      "police": 4114,
      "aked": 4115,
      "iced": 4116,
      "icide": 4117,
      "sidewalk": 4118,
      "ault": 4119,
      "raz": 4120,
      "rather": 4121,
      "grin": 4122,
      "grind": 4123,
      "grap": 4124,
      "hearted": 4125,
      "letters": 4126,
      "fog": 4127,
      "emotion": 4128,
      "conne": 4129,
      "convers": 4130,
      "condemned": 4131,
      "stands": 4132,
      "handed": 4133,
      "handsome": 4134,
      "stops": 4135,
      "Myster": 4136,
      "Somewhere": 4137,
      "common": 4138,
      "howl": 4139,
      "type": 4140,
      "drew": 4141,
      "headin": 4142,
      "minds": 4143,
      "spin": 4144,
      "spot": 4145,
      "spread": 4146,
      "spinning": 4147,
      "spital": 4148,
      "icks": 4149,
      "reading": 4150,
      "bubble": 4151,
      "plays": 4152,
      "wond": 4153,
      "State": 4154,
      "harder": 4155,
      "dice": 4156,
      "drummer": 4157,
      "drank": 4158,
      "chee": 4159,
      "chest": 4160,
      "cheer": 4161,
      "string": 4162,
      "Thank": 4163,
      "fallen": 4164,
      "expen": 4165,
      "offer": 4166,
      "office": 4167,
      "hears": 4168,
      "hearin": 4169,
      "hearing": 4170,
      "penny": 4171,
      "keeping": 4172,
      "Whoo": 4173,
      "Whole": 4174,
      "farmer": 4175,
      "suc": 4176,
      "gues": 4177,
      "guide": 4178,
      "fice": 4179,
      "fired": 4180,
      "singer": 4181,
      "landed": 4182,
      "wrapped": 4183,
      "broom": 4184,
      "crum": 4185,
      "hasn": 4186,
      "asks": 4187,
      "affair": 4188,
      "crystal": 4189,
      "burns": 4190,
      "greet": 4191,
      "Doctor": 4192,
      "scattered": 4193,
      "killing": 4194,
      "breakin": 4195,
      "Going": 4196,
      "Moon": 4197,
      "isery": 4198,
      "sits": 4199,
      "inner": 4200,
      "ringin": 4201,
      "Orleans": 4202,
      "disap": 4203,
      "provide": 4204,
      "sleeps": 4205,
      "hypnot": 4206,
      "ruins": 4207,
      "tiny": 4208,
      "Shut": 4209,
      "county": 4210,
      "crew": 4211,
      "Looks": 4212,
      "Looking": 4213,
      "prayed": 4214,
      "matters": 4215,
      "pushed": 4216,
      "sins": 4217,
      "shoulders": 4218,
      "Reilly": 4219,
      "cares": 4220,
      "wakes": 4221,
      "strangers": 4222,
      "meets": 4223,
      "trains": 4224,
      "moves": 4225,
      "drinkin": 4226,
      "drinking": 4227,
      "Bradley": 4228,
      "Bye": 4229,
      "Peck": 4230,
      "horses": 4231,
      "heavens": 4232,
      "rence": 4233,
      "wondering": 4234,
      "Boot": 4235,
      "sooner": 4236,
      "barren": 4237,
      "finity": 4238,
      "stub": 4239,
      "choir": 4240,
      "choice": 4241,
      "Ruby": 4242,
      "wearin": 4243,
      "Death": 4244,
      "games": 4245,
      "reasons": 4246,
      "foolish": 4247,
      "frown": 4248,
      "frame": 4249,
      "sons": 4250,
      "crooked": 4251,
      "ulco": 4252,
      "watchin": 4253,
      "watching": 4254,
      "funeral": 4255,
      "Jackson": 4256,
      "parade": 4257,
      "parlor": 4258,
      "ments": 4259,
      "Seems": 4260,
      "missing": 4261,
      "mothers": 4262,
      "Puts": 4263,
      "eatin": 4264,
      "hunger": 4265,
      "powers": 4266,
      "dollars": 4267,
      "sailors": 4268,
      "Unless": 4269,
      "Uncle": 4270,
      "cries": 4271,
      "crimin": 4272,
      "desk": 4273,
      "pression": 4274,
      "vision": 4275,
      "Brooklyn": 4276,
      "awful": 4277,
      "pipe": 4278,
      "smart": 4279,
      "strike": 4280,
      "ortality": 4281,
      "brothers": 4282,
      "pullin": 4283,
      "bandits": 4284,
      "nerves": 4285,
      "nervous": 4286,
      "super": 4287,
      "weeping": 4288,
      "traveled": 4289,
      "worthless": 4290,
      "boxing": 4291,
      "carrying": 4292,
      "Buckets": 4293,
      "jewels": 4294,
      "haze": 4295,
      "smooth": 4296,
      "spoon": 4297,
      "spoken": 4298,
      "intend": 4299,
      "Tryin": 4300,
      "reward": 4301,
      "churches": 4302,
      "decay": 4303,
      "decide": 4304,
      "decided": 4305,
      "graveyard": 4306,
      "driftin": 4307,
      "Covenant": 4308,
      "Cobwebs": 4309,
      "duck": 4310,
      "swing": 4311,
      "sinkin": 4312,
      "politician": 4313,
      "quickly": 4314,
      "struck": 4315,
      "flatlands": 4316,
      "Between": 4317,
      "Spirit": 4318,
      "burden": 4319,
      "frost": 4320,
      "frozen": 4321,
      "lifted": 4322,
      "searchin": 4323,
      "searching": 4324,
      "cents": 4325,
      "drawing": 4326,
      "yelled": 4327,
      "eternity": 4328,
      "deserted": 4329,
      "Louise": 4330,
      "mitting": 4331,
      "slidin": 4332,
      "stripes": 4333,
      "stripped": 4334,
      "gambler": 4335,
      "gamblers": 4336,
      "satisfy": 4337,
      "America": 4338,
      "Foot": 4339,
      "Follow": 4340,
      "Fools": 4341,
      "Guthrie": 4342,
      "sym": 4343,
      "wasted": 4344,
      "stolen": 4345,
      "believing": 4346,
      "circus": 4347,
      "soldiers": 4348,
      "barkin": 4349,
      "barking": 4350,
      "cowboy": 4351,
      "dropped": 4352,
      "hounded": 4353,
      "loaded": 4354,
      "color": 4355,
      "bleedin": 4356,
      "diamonds": 4357,
      "Patty": 4358,
      "Waiting": 4359,
      "obli": 4360,
      "reflect": 4361,
      "folded": 4362,
      "suffering": 4363,
      "screams": 4364,
      "Admitting": 4365,
      "Darkness": 4366,
      "tails": 4367,
      "wishes": 4368,
      "immigrant": 4369,
      "trembling": 4370,
      "mirrors": 4371,
      "Gregory": 4372,
      "fifty": 4373,
      "snap": 4374,
      "square": 4375,
      "orgia": 4376,
      "advice": 4377,
      "Dreams": 4378,
      "gift": 4379,
      "husbands": 4380,
      "masterpiece": 4381,
      "slept": 4382,
      "nails": 4383,
      "bomb": 4384,
      "bombs": 4385,
      "Bello": 4386,
      "Chief": 4387,
      "Captain": 4388,
      "English": 4389,
      "Lights": 4390,
      "Valent": 4391,
      "cotton": 4392,
      "ffered": 4393,
      "pourin": 4394,
      "swallowed": 4395,
      "record": 4396,
      "apolog": 4397,
      "guilty": 4398,
      "workingman": 4399,
      "question": 4400,
      "Forever": 4401,
      "Georgia": 4402,
      "Lonely": 4403,
      "rett": 4404,
      "querida": 4405,
      "Stead": 4406,
      "Stripes": 4407,
      "surprise": 4408,
      "circumstance": 4409,
      "violence": 4410,
      "Garrett": 4411,
      "Houston": 4412,
      "Magdale": 4413,
      "Morning": 4414,
      "Shoot": 4415,
      "boulev": 4416,
      "eggs": 4417,
      "favor": 4418,
      "houet": 4419,
      "large": 4420,
      "marty": 4421,
      "twinkling": 4422,
      "released": 4423,
      "relig": 4424,
      "repeat": 4425,
      "regret": 4426,
      "possible": 4427,
      "suddenly": 4428,
      "Believe": 4429,
      "disguise": 4430,
      "philosophize": 4431,
      "Avenue": 4432,
      "Agarrame": 4433,
      "Acapulco": 4434,
      "Ballad": 4435,
      "California": 4436,
      "Eskimo": 4437,
      "Hurricane": 4438,
      "Hazel": 4439,
      "Odds": 4440,
      "Sunday": 4441,
      "Teeth": 4442,
      "White": 4443,
      "aurant": 4444,
      "bodies": 4445,
      "bundle": 4446,
      "claim": 4447,
      "fandango": 4448,
      "jungle": 4449,
      "vigila": 4450,
      "recogn": 4451,
      "champion": 4452,
      "weird": 4453,
      "conversation": 4454,
      "Magdalena": 4455,
      "19": 4456,
      "?\"": 4457,
      "Aust": 4458,
      "Ask": 4459,
      "Alt": 4460,
      "Around": 4461,
      "Aug": 4462,
      "Bad": 4463,
      "Bur": 4464,
      "Bel": 4465,
      "Born": 4466,
      "Bank": 4467,
      "Bible": 4468,
      "Babe": 4469,
      "Cl": 4470,
      "Cal": 4471,
      "Cri": 4472,
      "Cast": 4473,
      "Cra": 4474,
      "Crow": 4475,
      "Col": 4476,
      "Clay": 4477,
      "Cass": 4478,
      "Cop": 4479,
      "Dy": 4480,
      "Dar": 4481,
      "Dall": 4482,
      "Dep": 4483,
      "Dak": 4484,
      "Dist": 4485,
      "Dex": 4486,
      "Either": 4487,
      "Fl": 4488,
      "Flo": 4489,
      "Fri": 4490,
      "Fun": 4491,
      "Fight": 4492,
      "Fly": 4493,
      "Fred": 4494,
      "Free": 4495,
      "Fren": 4496,
      "Fris": 4497,
      "Flyn": 4498,
      "Gam": 4499,
      "Grace": 4500,
      "Hill": 4501,
      "Ilo": 4502,
      "Jan": 4503,
      "Kill": 4504,
      "Kiss": 4505,
      "Kans": 4506,
      "Kinley": 4507,
      "La": 4508,
      "Lon": 4509,
      "Lot": 4510,
      "Lau": 4511,
      "Law": 4512,
      "Med": 4513,
      "Many": 4514,
      "Mist": 4515,
      "Making": 4516,
      "Mona": 4517,
      "Pan": 4518,
      "Por": 4519,
      "Ped": 4520,
      "Pro": 4521,
      "Pet": 4522,
      "Phi": 4523,
      "Prop": 4524,
      "Pull": 4525,
      "Run": 4526,
      "Round": 4527,
      "Reve": 4528,
      "Rem": 4529,
      "Rest": 4530,
      "Rio": 4531,
      "Sm": 4532,
      "Sal": 4533,
      "Song": 4534,
      "Spe": 4535,
      "Sant": 4536,
      "Smo": 4537,
      "Stop": 4538,
      "Twi": 4539,
      "Till": 4540,
      "Tim": 4541,
      "Tex": 4542,
      "Train": 4543,
      "Temp": 4544,
      "Tular": 4545,
      "Viv": 4546,
      "Wake": 4547,
      "Wil": 4548,
      "Wast": 4549,
      "Wear": 4550,
      "Writ": 4551,
      "aver": 4552,
      "aman": 4553,
      "aist": 4554,
      "aime": 4555,
      "ailed": 4556,
      "bi": 4557,
      "bis": 4558,
      "bore": 4559,
      "bts": 4560,
      "baf": 4561,
      "bows": 4562,
      "bond": 4563,
      "bums": 4564,
      "cal": 4565,
      "cake": 4566,
      "cate": 4567,
      "cav": 4568,
      "clin": 4569,
      "cling": 4570,
      "cused": 4571,
      "clim": 4572,
      "claws": 4573,
      "cities": 4574,
      "dad": 4575,
      "dwell": 4576,
      "dumb": 4577,
      "ditch": 4578,
      "ec": 4579,
      "ech": 4580,
      "equ": 4581,
      "ecut": 4582,
      "eons": 4583,
      "fed": 4584,
      "fas": 4585,
      "fid": 4586,
      "fil": 4587,
      "fant": 4588,
      "file": 4589,
      "fled": 4590,
      "fru": 4591,
      "fina": 4592,
      "frail": 4593,
      "fading": 4594,
      "foul": 4595,
      "fades": 4596,
      "flick": 4597,
      "fault": 4598,
      "ghed": 4599,
      "ghet": 4600,
      "han": 4601,
      "having": 4602,
      "itor": 4603,
      "jaw": 4604,
      "lou": 4605,
      "lse": 4606,
      "lun": 4607,
      "lap": 4608,
      "mb": 4609,
      "mn": 4610,
      "ms": 4611,
      "mal": 4612,
      "mut": 4613,
      "map": 4614,
      "mour": 4615,
      "mount": 4616,
      "mouse": 4617,
      "motion": 4618,
      "misery": 4619,
      "nis": 4620,
      "nal": 4621,
      "nut": 4622,
      "nif": 4623,
      "ners": 4624,
      "nation": 4625,
      "nches": 4626,
      "os": 4627,
      "ov": 4628,
      "omy": 4629,
      "oven": 4630,
      "obey": 4631,
      "pot": 4632,
      "pup": 4633,
      "pace": 4634,
      "pus": 4635,
      "pile": 4636,
      "pra": 4637,
      "pim": 4638,
      "port": 4639,
      "pilin": 4640,
      "ras": 4641,
      "sie": 4642,
      "sist": 4643,
      "ssom": 4644,
      "tro": 4645,
      "tty": 4646,
      "task": 4647,
      "tattoo": 4648,
      "uce": 4649,
      "ult": 4650,
      "uba": 4651,
      "uary": 4652,
      "vion": 4653,
      "vate": 4654,
      "vows": 4655,
      "vious": 4656,
      "viously": 4657,
      "vanity": 4658,
      "ws": 4659,
      "wail": 4660,
      "wakin": 4661,
      "waist": 4662,
      "yed": 4663,
      "za": 4664,
      "zzy": 4665,
      "ino": 4666,
      "ining": 4667,
      "ination": 4668,
      "inform": 4669,
      "infinity": 4670,
      "anin": 4671,
      "anks": 4672,
      "anny": 4673,
      "rear": 4674,
      "renew": 4675,
      "requ": 4676,
      "returned": 4677,
      "reamed": 4678,
      "research": 4679,
      "refuse": 4680,
      "returns": 4681,
      "revol": 4682,
      "repent": 4683,
      "reeling": 4684,
      "revenge": 4685,
      "onde": 4686,
      "lla": 4687,
      "llis": 4688,
      "meal": 4689,
      "thur": 4690,
      "thumb": 4691,
      "threat": 4692,
      "toy": 4693,
      "toll": 4694,
      "tols": 4695,
      "tolling": 4696,
      "towards": 4697,
      "stain": 4698,
      "stir": 4699,
      "stack": 4700,
      "stalk": 4701,
      "stard": 4702,
      "stem": 4703,
      "stair": 4704,
      "stared": 4705,
      "att": 4706,
      "attention": 4707,
      "owe": 4708,
      "ower": 4709,
      "orge": 4710,
      "orated": 4711,
      "orphan": 4712,
      "ars": 4713,
      "army": 4714,
      "arrest": 4715,
      "armed": 4716,
      "artist": 4717,
      "anda": 4718,
      "leaf": 4719,
      "legged": 4720,
      "sew": 4721,
      "sess": 4722,
      "separ": 4723,
      "sevent": 4724,
      "ites": 4725,
      "ition": 4726,
      "itches": 4727,
      "bel": 4728,
      "bean": 4729,
      "beer": 4730,
      "bees": 4731,
      "beard": 4732,
      "became": 4733,
      "nding": 4734,
      "isco": 4735,
      "isions": 4736,
      "often": 4737,
      "eddon": 4738,
      "assu": 4739,
      "liber": 4740,
      "adi": 4741,
      "ador": 4742,
      "aded": 4743,
      "rovin": 4744,
      "ening": 4745,
      "ench": 4746,
      "ids": 4747,
      "idly": 4748,
      "idence": 4749,
      "acre": 4750,
      "actor": 4751,
      "acting": 4752,
      "loving": 4753,
      "utch": 4754,
      "wives": 4755,
      "rious": 4756,
      "rises": 4757,
      "neon": 4758,
      "elly": 4759,
      "fort": 4760,
      "forbid": 4761,
      "chic": 4762,
      "chase": 4763,
      "chasing": 4764,
      "ustine": 4765,
      "outsk": 4766,
      "wester": 4767,
      "goon": 4768,
      "govern": 4769,
      "tim": 4770,
      "shared": 4771,
      "shuff": 4772,
      "shatter": 4773,
      "dove": 4774,
      "upstairs": 4775,
      "abbed": 4776,
      "abuse": 4777,
      "unist": 4778,
      "unken": 4779,
      "uncle": 4780,
      "unlock": 4781,
      "mankind": 4782,
      "fever": 4783,
      "arer": 4784,
      "amin": 4785,
      "ambu": 4786,
      "nap": 4787,
      "knowin": 4788,
      "knowledge": 4789,
      "dece": 4790,
      "deput": 4791,
      "degre": 4792,
      "destruction": 4793,
      "debts": 4794,
      "oky": 4795,
      "oking": 4796,
      "pered": 4797,
      "blast": 4798,
      "bliss": 4799,
      "blonde": 4800,
      "coy": 4801,
      "cock": 4802,
      "coast": 4803,
      "trade": 4804,
      "ideas": 4805,
      "hates": 4806,
      "plow": 4807,
      "plant": 4808,
      "plans": 4809,
      "plates": 4810,
      "plague": 4811,
      "shes": 4812,
      "sheriff": 4813,
      "hoping": 4814,
      "notice": 4815,
      "notify": 4816,
      "worried": 4817,
      "ages": 4818,
      "agree": 4819,
      "astic": 4820,
      "inkin": 4821,
      "tool": 4822,
      "umn": 4823,
      "appin": 4824,
      "endure": 4825,
      "nts": 4826,
      "booth": 4827,
      "ified": 4828,
      "motor": 4829,
      "nighttime": 4830,
      "poet": 4831,
      "poems": 4832,
      "ents": 4833,
      "wanta": 4834,
      "ica": 4835,
      "icine": 4836,
      "usions": 4837,
      "iler": 4838,
      "throws": 4839,
      "brag": 4840,
      "brace": 4841,
      "bled": 4842,
      "blessed": 4843,
      "sideways": 4844,
      "ourney": 4845,
      "lette": 4846,
      "letting": 4847,
      "lfman": 4848,
      "ures": 4849,
      "foggy": 4850,
      "weren": 4851,
      "embar": 4852,
      "contr": 4853,
      "constant": 4854,
      "store": 4855,
      "stove": 4856,
      "stomach": 4857,
      "berry": 4858,
      "commit": 4859,
      "tyard": 4860,
      "dresses": 4861,
      "spy": 4862,
      "spill": 4863,
      "sports": 4864,
      "mule": 4865,
      "buzz": 4866,
      "gest": 4867,
      "newborn": 4868,
      "skill": 4869,
      "skull": 4870,
      "Soci": 4871,
      "quar": 4872,
      "Ford": 4873,
      "wondr": 4874,
      "Stat": 4875,
      "Stared": 4876,
      "div": 4877,
      "diately": 4878,
      "sunny": 4879,
      "sunglasses": 4880,
      "drugs": 4881,
      "check": 4882,
      "cheap": 4883,
      "stray": 4884,
      "strung": 4885,
      "strapped": 4886,
      "Thousand": 4887,
      "cloak": 4888,
      "closin": 4889,
      "evenin": 4890,
      "friendly": 4891,
      "execut": 4892,
      "Living": 4893,
      "Whom": 4894,
      "suits": 4895,
      "suffered": 4896,
      "layin": 4897,
      "carved": 4898,
      "ishin": 4899,
      "fiery": 4900,
      "Best": 4901,
      "Beat": 4902,
      "Behind": 4903,
      "mornings": 4904,
      "single": 4905,
      "holds": 4906,
      "landscape": 4907,
      "speaking": 4908,
      "speech": 4909,
      "Anne": 4910,
      "rung": 4911,
      "crashing": 4912,
      "crutch": 4913,
      "puts": 4914,
      "puttin": 4915,
      "works": 4916,
      "blossom": 4917,
      "aching": 4918,
      "ggers": 4919,
      "avoid": 4920,
      "talks": 4921,
      "afé": 4922,
      "afford": 4923,
      "lull": 4924,
      "beds": 4925,
      "changes": 4926,
      "shop": 4927,
      "shove": 4928,
      "shock": 4929,
      "lah": 4930,
      "lagoon": 4931,
      "torch": 4932,
      "cryin": 4933,
      "kindly": 4934,
      "ladder": 4935,
      "finding": 4936,
      "sessed": 4937,
      "rolls": 4938,
      "flames": 4939,
      "flaming": 4940,
      "tax": 4941,
      "believers": 4942,
      "Howard": 4943,
      "grew": 4944,
      "gress": 4945,
      "grease": 4946,
      "greasy": 4947,
      "Door": 4948,
      "score": 4949,
      "scorn": 4950,
      "stays": 4951,
      "Goes": 4952,
      "deadly": 4953,
      "rooms": 4954,
      "drill": 4955,
      "drives": 4956,
      "percent": 4957,
      "perfect": 4958,
      "inned": 4959,
      "ashamed": 4960,
      "haps": 4961,
      "tennis": 4962,
      "discre": 4963,
      "dishes": 4964,
      "discover": 4965,
      "discovered": 4966,
      "tress": 4967,
      "shower": 4968,
      "rub": 4969,
      "rugged": 4970,
      "starting": 4971,
      "boyfriend": 4972,
      "empire": 4973,
      "employ": 4974,
      "fires": 4975,
      "south": 4976,
      "bald": 4977,
      "countin": 4978,
      "painter": 4979,
      "paintin": 4980,
      "Blake": 4981,
      "Neath": 4982,
      "Neither": 4983,
      "Neighbor": 4984,
      "badge": 4985,
      "creature": 4986,
      "knives": 4987,
      "younger": 4988,
      "shots": 4989,
      "prayin": 4990,
      "bigger": 4991,
      "belly": 4992,
      "Mean": 4993,
      "truly": 4994,
      "curb": 4995,
      "curfew": 4996,
      "Babylon": 4997,
      "lots": 4998,
      "lotta": 4999
    },
    "merges": [
      [
        "h",
        "e"
      ],
      [
        "i",
        "n"
      ],
      [
        "o",
        "u"
      ],
      [
        "t",
        "he"
      ],
      [
        "a",
        "n"
      ],
      [
        "r",
        "e"
      ],
      [
        "o",
        "n"
      ],
      [
        "l",
        "l"
      ],
      [
        "y",
        "ou"
      ],
      [
        "m",
        "e"
      ],
      [
        "t",
        "h"
      ],
      [
        "t",
        "o"
      ],
      [
        "v",
        "e"
      ],
      [
        "s",
        "t"
      ],
      [
        "a",
        "t"
      ],
      [
        "o",
        "w"
      ],
      [
        "in",
        "g"
      ],
      [
        "o",
        "r"
      ],
      [
        "a",
        "r"
      ],
      [
        "an",
        "d"
      ],
      [
        "l",
        "e"
      ],
      [
        "s",
        "e"
      ],
      [
        "i",
        "t"
      ],
      [
        "b",
        "e"
      ],
      [
        "a",
        "y"
      ],
      [
        "n",
        "d"
      ],
      [
        "i",
        "s"
      ],
      [
        "o",
        "f"
      ],
      [
        "e",
        "d"
      ],
      [
        "e",
        "r"
      ],
      [
        "g",
        "h"
      ],
      [
        "a",
        "s"
      ],
      [
        "k",
        "e"
      ],
      [
        "l",
        "i"
      ],
      [
        "o",
        "t"
      ],
      [
        "a",
        "d"
      ],
      [
        "r",
        "o"
      ],
      [
        "e",
        "s"
      ],
      [
        "m",
        "y"
      ],
      [
        "a",
        "ll"
      ],
      [
        "e",
        "n"
      ],
      [
        "i",
        "d"
      ],
      [
        "o",
        "me"
      ],
      [
        "l",
        "d"
      ],
      [
        "a",
        "c"
      ],
      [
        "l",
        "o"
      ],
      [
        "gh",
        "t"
      ],
      [
        "T",
        "he"
      ],
      [
        "a",
        "l"
      ],
      [
        "u",
        "t"
      ],
      [
        "ve",
        "r"
      ],
      [
        "on",
        "e"
      ],
      [
        "you",
        "r"
      ],
      [
        "w",
        "i"
      ],
      [
        "A",
        "nd"
      ],
      [
        "r",
        "i"
      ],
      [
        "th",
        "at"
      ],
      [
        "Y",
        "ou"
      ],
      [
        "n",
        "e"
      ],
      [
        "e",
        "ll"
      ],
      [
        "w",
        "h"
      ],
      [
        "f",
        "or"
      ],
      [
        "e",
        "t"
      ],
      [
        "ow",
        "n"
      ],
      [
        "o",
        "d"
      ],
      [
        "a",
        "in"
      ],
      [
        "c",
        "an"
      ],
      [
        "c",
        "h"
      ],
      [
        "u",
        "st"
      ],
      [
        "n",
        "o"
      ],
      [
        "ou",
        "t"
      ],
      [
        "n",
        "ow"
      ],
      [
        "w",
        "e"
      ],
      [
        "w",
        "as"
      ],
      [
        "g",
        "o"
      ],
      [
        "t",
        "i"
      ],
      [
        "s",
        "h"
      ],
      [
        "d",
        "o"
      ],
      [
        "a",
        "ve"
      ],
      [
        "i",
        "r"
      ],
      [
        "in",
        "d"
      ],
      [
        "u",
        "p"
      ],
      [
        "a",
        "b"
      ],
      [
        "r",
        "y"
      ],
      [
        "w",
        "ay"
      ],
      [
        "u",
        "n"
      ],
      [
        "m",
        "an"
      ],
      [
        "wi",
        "th"
      ],
      [
        "f",
        "e"
      ],
      [
        "i",
        "ght"
      ],
      [
        "he",
        "re"
      ],
      [
        "i",
        "ll"
      ],
      [
        "d",
        "own"
      ],
      [
        "a",
        "re"
      ],
      [
        "a",
        "m"
      ],
      [
        "o",
        "re"
      ],
      [
        "n",
        "a"
      ],
      [
        "u",
        "r"
      ],
      [
        "l",
        "y"
      ],
      [
        "k",
        "now"
      ],
      [
        "a",
        "ke"
      ],
      [
        "the",
        "y"
      ],
      [
        "d",
        "e"
      ],
      [
        "g",
        "ot"
      ],
      [
        "c",
        "e"
      ],
      [
        "o",
        "k"
      ],
      [
        "th",
        "ing"
      ],
      [
        "s",
        "ome"
      ],
      [
        "H",
        "e"
      ],
      [
        "he",
        "n"
      ],
      [
        "li",
        "ke"
      ],
      [
        "ac",
        "k"
      ],
      [
        "c",
        "k"
      ],
      [
        "B",
        "ut"
      ],
      [
        "h",
        "i"
      ],
      [
        "s",
        "a"
      ],
      [
        "on",
        "g"
      ],
      [
        "ro",
        "m"
      ],
      [
        "ou",
        "ld"
      ],
      [
        "s",
        "o"
      ],
      [
        "d",
        "on"
      ],
      [
        "j",
        "ust"
      ],
      [
        "h",
        "is"
      ],
      [
        "p",
        "e"
      ],
      [
        "ti",
        "me"
      ],
      [
        "b",
        "l"
      ],
      [
        "the",
        "r"
      ],
      [
        "W",
        "ell"
      ],
      [
        "c",
        "o"
      ],
      [
        "t",
        "r"
      ],
      [
        "ar",
        "t"
      ],
      [
        "ou",
        "nd"
      ],
      [
        "the",
        "re"
      ],
      [
        "id",
        "e"
      ],
      [
        "se",
        "e"
      ],
      [
        "h",
        "at"
      ],
      [
        "wh",
        "at"
      ],
      [
        "e",
        "l"
      ],
      [
        "p",
        "l"
      ],
      [
        "s",
        "he"
      ],
      [
        "e",
        "p"
      ],
      [
        "h",
        "o"
      ],
      [
        "he",
        "r"
      ],
      [
        "s",
        "ay"
      ],
      [
        "f",
        "rom"
      ],
      [
        "n",
        "ot"
      ],
      [
        "w",
        "or"
      ],
      [
        "a",
        "g"
      ],
      [
        "h",
        "ave"
      ],
      [
        "al",
        "k"
      ],
      [
        "I",
        "t"
      ],
      [
        "ar",
        "d"
      ],
      [
        "lo",
        "ve"
      ],
      [
        "i",
        "l"
      ],
      [
        "e",
        "ver"
      ],
      [
        "an",
        "t"
      ],
      [
        "on",
        "na"
      ],
      [
        "an",
        "g"
      ],
      [
        "ac",
        "e"
      ],
      [
        "e",
        "y"
      ],
      [
        "od",
        "y"
      ],
      [
        "d",
        "ay"
      ],
      [
        "t",
        "er"
      ],
      [
        "g",
        "et"
      ],
      [
        "a",
        "st"
      ],
      [
        "b",
        "ody"
      ],
      [
        "in",
        "k"
      ],
      [
        "in",
        "e"
      ],
      [
        "c",
        "ome"
      ],
      [
        "g",
        "onna"
      ],
      [
        "ou",
        "gh"
      ],
      [
        "p",
        "le"
      ],
      [
        "to",
        "o"
      ],
      [
        "i",
        "on"
      ],
      [
        "u",
        "m"
      ],
      [
        "T",
        "o"
      ],
      [
        "b",
        "y"
      ],
      [
        "b",
        "ack"
      ],
      [
        "hi",
        "m"
      ],
      [
        "a",
        "p"
      ],
      [
        "sa",
        "id"
      ],
      [
        "e",
        "nd"
      ],
      [
        "m",
        "ore"
      ],
      [
        "s",
        "s"
      ],
      [
        "n",
        "t"
      ],
      [
        "b",
        "o"
      ],
      [
        "be",
        "en"
      ],
      [
        "lo",
        "ok"
      ],
      [
        "b",
        "ut"
      ],
      [
        "an",
        "y"
      ],
      [
        "i",
        "f"
      ],
      [
        "S",
        "he"
      ],
      [
        "i",
        "e"
      ],
      [
        "m",
        "o"
      ],
      [
        "th",
        "is"
      ],
      [
        "u",
        "e"
      ],
      [
        "The",
        "y"
      ],
      [
        "W",
        "hen"
      ],
      [
        "wh",
        "o"
      ],
      [
        "wi",
        "ll"
      ],
      [
        "w",
        "here"
      ],
      [
        "ur",
        "n"
      ],
      [
        "n",
        "ight"
      ],
      [
        "a",
        "me"
      ],
      [
        "ri",
        "ght"
      ],
      [
        "ab",
        "y"
      ],
      [
        "I",
        "n"
      ],
      [
        "l",
        "ow"
      ],
      [
        "e",
        "ar"
      ],
      [
        "p",
        "o"
      ],
      [
        "w",
        "hen"
      ],
      [
        "en",
        "t"
      ],
      [
        "a",
        "k"
      ],
      [
        "c",
        "ould"
      ],
      [
        "w",
        "ant"
      ],
      [
        "w",
        "alk"
      ],
      [
        "i",
        "c"
      ],
      [
        "u",
        "s"
      ],
      [
        "d",
        "id"
      ],
      [
        "I",
        "f"
      ],
      [
        "w",
        "o"
      ],
      [
        "i",
        "le"
      ],
      [
        "se",
        "d"
      ],
      [
        "i",
        "ve"
      ],
      [
        "re",
        "d"
      ],
      [
        "th",
        "r"
      ],
      [
        "b",
        "r"
      ],
      [
        "O",
        "h"
      ],
      [
        "i",
        "g"
      ],
      [
        "th",
        "ink"
      ],
      [
        "ne",
        "ver"
      ],
      [
        "T",
        "hat"
      ],
      [
        "b",
        "le"
      ],
      [
        "l",
        "ong"
      ],
      [
        "s",
        "ide"
      ],
      [
        "t",
        "ell"
      ],
      [
        "e",
        "ve"
      ],
      [
        "a",
        "u"
      ],
      [
        "ou",
        "r"
      ],
      [
        "r",
        "a"
      ],
      [
        "or",
        "n"
      ],
      [
        "at",
        "e"
      ],
      [
        "er",
        "s"
      ],
      [
        "g",
        "r"
      ],
      [
        "b",
        "aby"
      ],
      [
        "he",
        "art"
      ],
      [
        "the",
        "m"
      ],
      [
        "i",
        "st"
      ],
      [
        "a",
        "th"
      ],
      [
        "i",
        "th"
      ],
      [
        "le",
        "t"
      ],
      [
        "D",
        "on"
      ],
      [
        "m",
        "ake"
      ],
      [
        "f",
        "ore"
      ],
      [
        "W",
        "e"
      ],
      [
        "h",
        "ad"
      ],
      [
        "l",
        "f"
      ],
      [
        "u",
        "re"
      ],
      [
        "The",
        "re"
      ],
      [
        "es",
        "s"
      ],
      [
        "li",
        "ght"
      ],
      [
        "go",
        "od"
      ],
      [
        "u",
        "nd"
      ],
      [
        "fe",
        "el"
      ],
      [
        "a",
        "se"
      ],
      [
        "ab",
        "out"
      ],
      [
        "f",
        "o"
      ],
      [
        "we",
        "re"
      ],
      [
        "e",
        "m"
      ],
      [
        "thr",
        "ough"
      ],
      [
        "c",
        "on"
      ],
      [
        "st",
        "and"
      ],
      [
        "ever",
        "y"
      ],
      [
        "h",
        "and"
      ],
      [
        "t",
        "ake"
      ],
      [
        "W",
        "ith"
      ],
      [
        "a",
        "way"
      ],
      [
        "s",
        "to"
      ],
      [
        "w",
        "n"
      ],
      [
        "be",
        "r"
      ],
      [
        "N",
        "o"
      ],
      [
        "w",
        "ould"
      ],
      [
        "M",
        "y"
      ],
      [
        "S",
        "ome"
      ],
      [
        "o",
        "ther"
      ],
      [
        "co",
        "m"
      ],
      [
        "re",
        "e"
      ],
      [
        "h",
        "ow"
      ],
      [
        "in",
        "to"
      ],
      [
        "t",
        "y"
      ],
      [
        "ar",
        "ound"
      ],
      [
        "d",
        "re"
      ],
      [
        "he",
        "ad"
      ],
      [
        "ne",
        "ed"
      ],
      [
        "m",
        "ind"
      ],
      [
        "s",
        "p"
      ],
      [
        "i",
        "m"
      ],
      [
        "t",
        "le"
      ],
      [
        "t",
        "urn"
      ],
      [
        "se",
        "lf"
      ],
      [
        "ad",
        "e"
      ],
      [
        "i",
        "ck"
      ],
      [
        "f",
        "t"
      ],
      [
        "the",
        "ir"
      ],
      [
        "re",
        "ad"
      ],
      [
        "ey",
        "es"
      ],
      [
        "o",
        "m"
      ],
      [
        "a",
        "ir"
      ],
      [
        "g",
        "ive"
      ],
      [
        "m",
        "u"
      ],
      [
        "w",
        "ind"
      ],
      [
        "b",
        "u"
      ],
      [
        "g",
        "e"
      ],
      [
        "r",
        "ow"
      ],
      [
        "ro",
        "ad"
      ],
      [
        "ne",
        "w"
      ],
      [
        "s",
        "k"
      ],
      [
        "S",
        "o"
      ],
      [
        "one",
        "y"
      ],
      [
        "pl",
        "ay"
      ],
      [
        "ver",
        "y"
      ],
      [
        "W",
        "hat"
      ],
      [
        "q",
        "u"
      ],
      [
        "it",
        "y"
      ],
      [
        "o",
        "ple"
      ],
      [
        "A",
        "ll"
      ],
      [
        "F",
        "or"
      ],
      [
        "N",
        "ow"
      ],
      [
        "n",
        "g"
      ],
      [
        "p",
        "r"
      ],
      [
        "ou",
        "s"
      ],
      [
        "st",
        "ill"
      ],
      [
        "ar",
        "k"
      ],
      [
        "do",
        "or"
      ],
      [
        "wor",
        "ld"
      ],
      [
        "w",
        "on"
      ],
      [
        "li",
        "ve"
      ],
      [
        "S",
        "t"
      ],
      [
        "c",
        "all"
      ],
      [
        "l",
        "it"
      ],
      [
        "ou",
        "nt"
      ],
      [
        "way",
        "s"
      ],
      [
        "h",
        "ard"
      ],
      [
        "o",
        "h"
      ],
      [
        "o",
        "ld"
      ],
      [
        "W",
        "here"
      ],
      [
        "d",
        "i"
      ],
      [
        "o",
        "ver"
      ],
      [
        "s",
        "un"
      ],
      [
        "m",
        "ust"
      ],
      [
        "on",
        "ly"
      ],
      [
        "d",
        "r"
      ],
      [
        "g",
        "one"
      ],
      [
        "p",
        "re"
      ],
      [
        "me",
        "m"
      ],
      [
        "f",
        "ri"
      ],
      [
        "und",
        "er"
      ],
      [
        "b",
        "re"
      ],
      [
        "c",
        "he"
      ],
      [
        "f",
        "u"
      ],
      [
        "st",
        "r"
      ],
      [
        "O",
        "n"
      ],
      [
        "T",
        "h"
      ],
      [
        "c",
        "lo"
      ],
      [
        "f",
        "all"
      ],
      [
        "o",
        "l"
      ],
      [
        "eve",
        "n"
      ],
      [
        "fri",
        "end"
      ],
      [
        "L",
        "o"
      ],
      [
        "e",
        "x"
      ],
      [
        "st",
        "re"
      ],
      [
        "is",
        "s"
      ],
      [
        "pl",
        "ace"
      ],
      [
        "pe",
        "ople"
      ],
      [
        "of",
        "f"
      ],
      [
        "li",
        "fe"
      ],
      [
        "L",
        "i"
      ],
      [
        "w",
        "at"
      ],
      [
        "w",
        "ell"
      ],
      [
        "he",
        "ar"
      ],
      [
        "or",
        "d"
      ],
      [
        "p",
        "en"
      ],
      [
        "ag",
        "ain"
      ],
      [
        "f",
        "ace"
      ],
      [
        "t",
        "ry"
      ],
      [
        "w",
        "ent"
      ],
      [
        "to",
        "wn"
      ],
      [
        "ke",
        "ep"
      ],
      [
        "W",
        "ho"
      ],
      [
        "a",
        "it"
      ],
      [
        "f",
        "ar"
      ],
      [
        "s",
        "u"
      ],
      [
        "mu",
        "ch"
      ],
      [
        "l",
        "ay"
      ],
      [
        "bl",
        "ow"
      ],
      [
        "c",
        "ar"
      ],
      [
        "ou",
        "ght"
      ],
      [
        "is",
        "h"
      ],
      [
        "E",
        "very"
      ],
      [
        "g",
        "u"
      ],
      [
        "al",
        "ways"
      ],
      [
        "ear",
        "s"
      ],
      [
        "f",
        "i"
      ],
      [
        "t",
        "e"
      ],
      [
        "all",
        "y"
      ],
      [
        "time",
        "s"
      ],
      [
        "B",
        "e"
      ],
      [
        "G",
        "od"
      ],
      [
        "m",
        "orn"
      ],
      [
        "an",
        "ce"
      ],
      [
        "s",
        "ing"
      ],
      [
        "at",
        "ion"
      ],
      [
        "be",
        "g"
      ],
      [
        "thing",
        "s"
      ],
      [
        "ho",
        "ld"
      ],
      [
        "wo",
        "man"
      ],
      [
        "h",
        "ome"
      ],
      [
        "l",
        "and"
      ],
      [
        "s",
        "we"
      ],
      [
        "t",
        "s"
      ],
      [
        "the",
        "n"
      ],
      [
        "th",
        "in"
      ],
      [
        "th",
        "an"
      ],
      [
        "se",
        "r"
      ],
      [
        "be",
        "fore"
      ],
      [
        "s",
        "pe"
      ],
      [
        "u",
        "d"
      ],
      [
        "w",
        "r"
      ],
      [
        "A",
        "n"
      ],
      [
        "J",
        "ust"
      ],
      [
        "b",
        "ro"
      ],
      [
        "m",
        "ade"
      ],
      [
        "r",
        "un"
      ],
      [
        "me",
        "n"
      ],
      [
        "a",
        "il"
      ],
      [
        "c",
        "r"
      ],
      [
        "l",
        "ast"
      ],
      [
        "m",
        "ight"
      ],
      [
        "p",
        "ut"
      ],
      [
        "The",
        "n"
      ],
      [
        "wor",
        "k"
      ],
      [
        "dre",
        "am"
      ],
      [
        "b",
        "lo"
      ],
      [
        "h",
        "as"
      ],
      [
        "ac",
        "h"
      ],
      [
        "ir",
        "l"
      ],
      [
        "some",
        "thing"
      ],
      [
        "hi",
        "gh"
      ],
      [
        "say",
        "s"
      ],
      [
        "lit",
        "tle"
      ],
      [
        "R",
        "o"
      ],
      [
        "g",
        "g"
      ],
      [
        "t",
        "on"
      ],
      [
        "w",
        "ait"
      ],
      [
        "as",
        "k"
      ],
      [
        "a",
        "v"
      ],
      [
        "i",
        "ld"
      ],
      [
        "it",
        "e"
      ],
      [
        "na",
        "me"
      ],
      [
        "au",
        "se"
      ],
      [
        "A",
        "s"
      ],
      [
        "a",
        "ther"
      ],
      [
        "t",
        "alk"
      ],
      [
        "be",
        "t"
      ],
      [
        "ri",
        "ed"
      ],
      [
        "go",
        "ing"
      ],
      [
        "a",
        "f"
      ],
      [
        "l",
        "u"
      ],
      [
        "ou",
        "ble"
      ],
      [
        "be",
        "d"
      ],
      [
        "ch",
        "ang"
      ],
      [
        "no",
        "thing"
      ],
      [
        "sh",
        "o"
      ],
      [
        "mem",
        "ber"
      ],
      [
        "i",
        "es"
      ],
      [
        "l",
        "a"
      ],
      [
        "p",
        "ed"
      ],
      [
        "me",
        "r"
      ],
      [
        "ro",
        "ss"
      ],
      [
        "e",
        "v"
      ],
      [
        "m",
        "ay"
      ],
      [
        "on",
        "es"
      ],
      [
        "to",
        "r"
      ],
      [
        "c",
        "ry"
      ],
      [
        "d",
        "s"
      ],
      [
        "am",
        "a"
      ],
      [
        "read",
        "y"
      ],
      [
        "stre",
        "et"
      ],
      [
        "?",
        "”"
      ],
      [
        "I",
        "s"
      ],
      [
        "k",
        "ind"
      ],
      [
        "m",
        "ile"
      ],
      [
        "c",
        "t"
      ],
      [
        "l",
        "ad"
      ],
      [
        "man",
        "y"
      ],
      [
        "F",
        "rom"
      ],
      [
        "e",
        "e"
      ],
      [
        "f",
        "ind"
      ],
      [
        "i",
        "ce"
      ],
      [
        "ing",
        "s"
      ],
      [
        "se",
        "s"
      ],
      [
        "as",
        "s"
      ],
      [
        "ro",
        "ll"
      ],
      [
        "f",
        "l"
      ],
      [
        "w",
        "all"
      ],
      [
        "le",
        "ep"
      ],
      [
        "b",
        "urn"
      ],
      [
        "p",
        "s"
      ],
      [
        "t",
        "a"
      ],
      [
        "’",
        ","
      ],
      [
        "be",
        "li"
      ],
      [
        "H",
        "ow"
      ],
      [
        "g",
        "re"
      ],
      [
        "l",
        "ine"
      ],
      [
        "z",
        "e"
      ],
      [
        "ar",
        "m"
      ],
      [
        "ke",
        "n"
      ],
      [
        "D",
        "o"
      ],
      [
        "d",
        "er"
      ],
      [
        "g",
        "irl"
      ],
      [
        "h",
        "ang"
      ],
      [
        "s",
        "c"
      ],
      [
        "y",
        "a"
      ],
      [
        "an",
        "na"
      ],
      [
        "to",
        "ok"
      ],
      [
        "st",
        "ay"
      ],
      [
        "le",
        "ft"
      ],
      [
        "You",
        "r"
      ],
      [
        "k",
        "ill"
      ],
      [
        "le",
        "ss"
      ],
      [
        "ag",
        "e"
      ],
      [
        "bre",
        "ak"
      ],
      [
        "G",
        "o"
      ],
      [
        "M",
        "o"
      ],
      [
        "Y",
        "es"
      ],
      [
        "c",
        "ame"
      ],
      [
        "h",
        "ind"
      ],
      [
        "re",
        "member"
      ],
      [
        "se",
        "en"
      ],
      [
        "no",
        "body"
      ],
      [
        "de",
        "ad"
      ],
      [
        "come",
        "s"
      ],
      [
        "did",
        "n"
      ],
      [
        "d",
        "ark"
      ],
      [
        "le",
        "d"
      ],
      [
        "ro",
        "om"
      ],
      [
        "ti",
        "l"
      ],
      [
        ",",
        "”"
      ],
      [
        "D",
        "own"
      ],
      [
        "L",
        "ord"
      ],
      [
        "O",
        "ne"
      ],
      [
        "i",
        "gh"
      ],
      [
        "tr",
        "ue"
      ],
      [
        "Li",
        "ke"
      ],
      [
        "W",
        "ill"
      ],
      [
        "i",
        "se"
      ],
      [
        "l",
        "ate"
      ],
      [
        "sa",
        "w"
      ],
      [
        "mo",
        "on"
      ],
      [
        "C",
        "ome"
      ],
      [
        "T",
        "ell"
      ],
      [
        "a",
        "h"
      ],
      [
        "d",
        "ri"
      ],
      [
        "p",
        "er"
      ],
      [
        "r",
        "ain"
      ],
      [
        "s",
        "it"
      ],
      [
        "in",
        "n"
      ],
      [
        "as",
        "h"
      ],
      [
        "c",
        "le"
      ],
      [
        "h",
        "ap"
      ],
      [
        "t",
        "en"
      ],
      [
        "ve",
        "n"
      ],
      [
        "st",
        "ar"
      ],
      [
        "ow",
        "s"
      ],
      [
        "be",
        "hind"
      ],
      [
        "m",
        "at"
      ],
      [
        "r",
        "ing"
      ],
      [
        "go",
        "in"
      ],
      [
        "some",
        "one"
      ],
      [
        "sto",
        "p"
      ],
      [
        "ton",
        "ight"
      ],
      [
        "bet",
        "ter"
      ],
      [
        "O",
        "r"
      ],
      [
        "d",
        "is"
      ],
      [
        "f",
        "low"
      ],
      [
        "w",
        "anna"
      ],
      [
        "in",
        "side"
      ],
      [
        "re",
        "ally"
      ],
      [
        "some",
        "body"
      ],
      [
        "p",
        "ro"
      ],
      [
        "s",
        "leep"
      ],
      [
        "al",
        "one"
      ],
      [
        "your",
        "self"
      ],
      [
        "p",
        "in"
      ],
      [
        "t",
        "re"
      ],
      [
        "an",
        "c"
      ],
      [
        "s",
        "ong"
      ],
      [
        "y",
        "er"
      ],
      [
        "sh",
        "ow"
      ],
      [
        "know",
        "s"
      ],
      [
        "look",
        "in"
      ],
      [
        "h",
        "y"
      ],
      [
        "i",
        "p"
      ],
      [
        "m",
        "oney"
      ],
      [
        "r",
        "u"
      ],
      [
        "st",
        "art"
      ],
      [
        "le",
        "s"
      ],
      [
        "wh",
        "ile"
      ],
      [
        "bl",
        "ack"
      ],
      [
        "walk",
        "in"
      ],
      [
        "c",
        "ause"
      ],
      [
        "e",
        "st"
      ],
      [
        "t",
        "in"
      ],
      [
        "st",
        "ep"
      ],
      [
        "le",
        "ave"
      ],
      [
        "ch",
        "ild"
      ],
      [
        "do",
        "es"
      ],
      [
        "tr",
        "ouble"
      ],
      [
        "bo",
        "y"
      ],
      [
        "em",
        "p"
      ],
      [
        "fi",
        "re"
      ],
      [
        "S",
        "ay"
      ],
      [
        "d",
        "y"
      ],
      [
        "d",
        "one"
      ],
      [
        "l",
        "t"
      ],
      [
        "l",
        "in"
      ],
      [
        "s",
        "ou"
      ],
      [
        "to",
        "m"
      ],
      [
        "morn",
        "ing"
      ],
      [
        "blo",
        "od"
      ],
      [
        "beli",
        "eve"
      ],
      [
        "S",
        "h"
      ],
      [
        "b",
        "a"
      ],
      [
        "c",
        "ount"
      ],
      [
        "l",
        "ing"
      ],
      [
        "n",
        "ess"
      ],
      [
        "p",
        "ain"
      ],
      [
        "t",
        "ing"
      ],
      [
        "v",
        "ing"
      ],
      [
        "lo",
        "st"
      ],
      [
        "B",
        "l"
      ],
      [
        "N",
        "e"
      ],
      [
        "v",
        "in"
      ],
      [
        "th",
        "ought"
      ],
      [
        "ig",
        "n"
      ],
      [
        "sk",
        "y"
      ],
      [
        "A",
        "in"
      ],
      [
        "b",
        "ad"
      ],
      [
        "m",
        "ine"
      ],
      [
        "r",
        "an"
      ],
      [
        "on",
        "d"
      ],
      [
        "de",
        "ath"
      ],
      [
        "br",
        "ing"
      ],
      [
        "c",
        "re"
      ],
      [
        "e",
        "ah"
      ],
      [
        "f",
        "ly"
      ],
      [
        "k",
        "n"
      ],
      [
        "he",
        "ard"
      ],
      [
        "ou",
        "se"
      ],
      [
        "you",
        "ng"
      ],
      [
        "st",
        "one"
      ],
      [
        "fe",
        "et"
      ],
      [
        "ple",
        "ase"
      ],
      [
        "swe",
        "et"
      ],
      [
        "H",
        "is"
      ],
      [
        "P",
        "lay"
      ],
      [
        "s",
        "ure"
      ],
      [
        "t",
        "ed"
      ],
      [
        "an",
        "other"
      ],
      [
        "or",
        "row"
      ],
      [
        "be",
        "st"
      ],
      [
        "my",
        "self"
      ],
      [
        "sh",
        "ot"
      ],
      [
        "wat",
        "er"
      ],
      [
        "wr",
        "ong"
      ],
      [
        "f",
        "f"
      ],
      [
        "s",
        "sed"
      ],
      [
        "the",
        "se"
      ],
      [
        "al",
        "ong"
      ],
      [
        "Lo",
        "ok"
      ],
      [
        "C",
        "an"
      ],
      [
        "L",
        "et"
      ],
      [
        "an",
        "s"
      ],
      [
        "no",
        "ck"
      ],
      [
        "com",
        "in"
      ],
      [
        "pr",
        "ay"
      ],
      [
        "cry",
        "ing"
      ],
      [
        "b",
        "ig"
      ],
      [
        "s",
        "low"
      ],
      [
        "ar",
        "n"
      ],
      [
        "be",
        "ll"
      ],
      [
        "bl",
        "ue"
      ],
      [
        "hand",
        "s"
      ],
      [
        "pre",
        "t"
      ],
      [
        "sou",
        "l"
      ],
      [
        "ba",
        "be"
      ],
      [
        "M",
        "e"
      ],
      [
        "M",
        "ay"
      ],
      [
        "i",
        "me"
      ],
      [
        "m",
        "ill"
      ],
      [
        "p",
        "a"
      ],
      [
        "r",
        "ide"
      ],
      [
        "t",
        "wo"
      ],
      [
        "u",
        "es"
      ],
      [
        "ri",
        "p"
      ],
      [
        "ri",
        "ver"
      ],
      [
        "wh",
        "y"
      ],
      [
        "tr",
        "u"
      ],
      [
        "mat",
        "ter"
      ],
      [
        "J",
        "o"
      ],
      [
        "c",
        "l"
      ],
      [
        "c",
        "ur"
      ],
      [
        "d",
        "en"
      ],
      [
        "d",
        "ie"
      ],
      [
        "h",
        "air"
      ],
      [
        "k",
        "new"
      ],
      [
        "q",
        "ue"
      ],
      [
        "go",
        "ld"
      ],
      [
        "ave",
        "n"
      ],
      [
        "with",
        "out"
      ],
      [
        "who",
        "le"
      ],
      [
        "ount",
        "ain"
      ],
      [
        "B",
        "aby"
      ],
      [
        "M",
        "an"
      ],
      [
        "W",
        "hi"
      ],
      [
        "h",
        "ill"
      ],
      [
        "l",
        "ot"
      ],
      [
        "t",
        "ou"
      ],
      [
        "in",
        "a"
      ],
      [
        "ll",
        "ow"
      ],
      [
        "st",
        "e"
      ],
      [
        "ar",
        "y"
      ],
      [
        "ne",
        "ath"
      ],
      [
        "sa",
        "me"
      ],
      [
        "um",
        "p"
      ],
      [
        "ak",
        "ing"
      ],
      [
        "bro",
        "ken"
      ],
      [
        "A",
        "t"
      ],
      [
        "c",
        "ke"
      ],
      [
        "c",
        "ut"
      ],
      [
        "f",
        "lo"
      ],
      [
        "f",
        "ree"
      ],
      [
        "h",
        "ur"
      ],
      [
        "l",
        "p"
      ],
      [
        "p",
        "u"
      ],
      [
        "all",
        "ey"
      ],
      [
        "ne",
        "ar"
      ],
      [
        "co",
        "ld"
      ],
      [
        "ous",
        "and"
      ],
      [
        "P",
        "le"
      ],
      [
        "T",
        "ake"
      ],
      [
        "b",
        "orn"
      ],
      [
        "c",
        "i"
      ],
      [
        "u",
        "sed"
      ],
      [
        "and",
        "y"
      ],
      [
        "al",
        "s"
      ],
      [
        "no",
        "thin"
      ],
      [
        "up",
        "on"
      ],
      [
        "look",
        "ed"
      ],
      [
        "au",
        "ght"
      ],
      [
        "gr",
        "ound"
      ],
      [
        "fu",
        "l"
      ],
      [
        "H",
        "en"
      ],
      [
        "T",
        "r"
      ],
      [
        "c",
        "ross"
      ],
      [
        "g",
        "un"
      ],
      [
        "h",
        "ouse"
      ],
      [
        "k",
        "ing"
      ],
      [
        "o",
        "se"
      ],
      [
        "s",
        "in"
      ],
      [
        "s",
        "ad"
      ],
      [
        "w",
        "ish"
      ],
      [
        "as",
        "on"
      ],
      [
        "sh",
        "ould"
      ],
      [
        "ab",
        "le"
      ],
      [
        "He",
        "art"
      ],
      [
        "friend",
        "s"
      ],
      [
        "G",
        "ot"
      ],
      [
        "R",
        "e"
      ],
      [
        "c",
        "at"
      ],
      [
        "c",
        "are"
      ],
      [
        "g",
        "s"
      ],
      [
        "h",
        "our"
      ],
      [
        "o",
        "ve"
      ],
      [
        "p",
        "art"
      ],
      [
        "t",
        "ain"
      ],
      [
        "w",
        "ake"
      ],
      [
        "x",
        "t"
      ],
      [
        "he",
        "ll"
      ],
      [
        "ll",
        "y"
      ],
      [
        "th",
        "ousand"
      ],
      [
        "it",
        "s"
      ],
      [
        "um",
        "mer"
      ],
      [
        "str",
        "ang"
      ],
      [
        "mill",
        "ion"
      ],
      [
        "Ple",
        "ase"
      ],
      [
        "Hen",
        "ry"
      ],
      [
        "A",
        "l"
      ],
      [
        "A",
        "re"
      ],
      [
        "M",
        "iss"
      ],
      [
        "v",
        "o"
      ],
      [
        "y",
        "ears"
      ],
      [
        "me",
        "et"
      ],
      [
        "li",
        "m"
      ],
      [
        "ne",
        "xt"
      ],
      [
        "tr",
        "ain"
      ],
      [
        "ist",
        "er"
      ],
      [
        "af",
        "ter"
      ],
      [
        "b",
        "ir"
      ],
      [
        "c",
        "ra"
      ],
      [
        "k",
        "nock"
      ],
      [
        "re",
        "st"
      ],
      [
        "on",
        "ce"
      ],
      [
        "wh",
        "ite"
      ],
      [
        "ti",
        "on"
      ],
      [
        "sh",
        "all"
      ],
      [
        "pl",
        "ain"
      ],
      [
        "mo",
        "ve"
      ],
      [
        "dr",
        "ink"
      ],
      [
        "che",
        "d"
      ],
      [
        "Lo",
        "ve"
      ],
      [
        "ser",
        "ve"
      ],
      [
        "inn",
        "ing"
      ],
      [
        ".",
        "”"
      ],
      [
        "B",
        "r"
      ],
      [
        "B",
        "y"
      ],
      [
        "M",
        "ama"
      ],
      [
        "P",
        "e"
      ],
      [
        "f",
        "ell"
      ],
      [
        "f",
        "ight"
      ],
      [
        "f",
        "ill"
      ],
      [
        "h",
        "or"
      ],
      [
        "j",
        "o"
      ],
      [
        "m",
        "on"
      ],
      [
        "p",
        "ri"
      ],
      [
        "u",
        "ne"
      ],
      [
        "w",
        "he"
      ],
      [
        "he",
        "aven"
      ],
      [
        "the",
        "s"
      ],
      [
        "re",
        "n"
      ],
      [
        "ir",
        "st"
      ],
      [
        "ab",
        "ove"
      ],
      [
        "un",
        "g"
      ],
      [
        "fo",
        "ot"
      ],
      [
        "won",
        "der"
      ],
      [
        "gg",
        "le"
      ],
      [
        "chang",
        "ed"
      ],
      [
        "B",
        "o"
      ],
      [
        "L",
        "e"
      ],
      [
        "T",
        "his"
      ],
      [
        "i",
        "x"
      ],
      [
        "j",
        "ud"
      ],
      [
        "m",
        "in"
      ],
      [
        "p",
        "ast"
      ],
      [
        "r",
        "ound"
      ],
      [
        "t",
        "wi"
      ],
      [
        "he",
        "lp"
      ],
      [
        "me",
        "an"
      ],
      [
        "as",
        "y"
      ],
      [
        "sh",
        "ad"
      ],
      [
        "so",
        "on"
      ],
      [
        "day",
        "s"
      ],
      [
        "every",
        "thing"
      ],
      [
        "clo",
        "thes"
      ],
      [
        "mile",
        "s"
      ],
      [
        "kn",
        "own"
      ],
      [
        "pret",
        "ty"
      ],
      [
        "H",
        "oney"
      ],
      [
        "b",
        "ar"
      ],
      [
        "f",
        "in"
      ],
      [
        "g",
        "l"
      ],
      [
        "k",
        "s"
      ],
      [
        "m",
        "id"
      ],
      [
        "m",
        "ama"
      ],
      [
        "n",
        "y"
      ],
      [
        "p",
        "h"
      ],
      [
        "p",
        "as"
      ],
      [
        "t",
        "ears"
      ],
      [
        "z",
        "y"
      ],
      [
        "he",
        "d"
      ],
      [
        "in",
        "s"
      ],
      [
        "in",
        "ter"
      ],
      [
        "st",
        "u"
      ],
      [
        "en",
        "ce"
      ],
      [
        "ch",
        "o"
      ],
      [
        "de",
        "ep"
      ],
      [
        "bl",
        "ind"
      ],
      [
        "mo",
        "st"
      ],
      [
        "sk",
        "in"
      ],
      [
        "Every",
        "body"
      ],
      [
        "Ne",
        "w"
      ],
      [
        "R",
        "u"
      ],
      [
        "W",
        "hy"
      ],
      [
        "b",
        "ound"
      ],
      [
        "p",
        "t"
      ],
      [
        "s",
        "il"
      ],
      [
        "ac",
        "ross"
      ],
      [
        "we",
        "ar"
      ],
      [
        "ck",
        "s"
      ],
      [
        "see",
        "m"
      ],
      [
        "fo",
        "llow"
      ],
      [
        "would",
        "n"
      ],
      [
        "wind",
        "ow"
      ],
      [
        "D",
        "e"
      ],
      [
        "H",
        "igh"
      ],
      [
        "a",
        "le"
      ],
      [
        "f",
        "our"
      ],
      [
        "g",
        "ave"
      ],
      [
        "g",
        "am"
      ],
      [
        "g",
        "ame"
      ],
      [
        "o",
        "pen"
      ],
      [
        "re",
        "al"
      ],
      [
        "re",
        "ason"
      ],
      [
        "me",
        "t"
      ],
      [
        "to",
        "ld"
      ],
      [
        "st",
        "ra"
      ],
      [
        "se",
        "t"
      ],
      [
        "ot",
        "e"
      ],
      [
        "ac",
        "t"
      ],
      [
        "sh",
        "ip"
      ],
      [
        "bl",
        "ues"
      ],
      [
        "ard",
        "s"
      ],
      [
        "br",
        "ain"
      ],
      [
        "We",
        "st"
      ],
      [
        "fo",
        "ol"
      ],
      [
        "under",
        "stand"
      ],
      [
        "spe",
        "ak"
      ],
      [
        "dream",
        "s"
      ],
      [
        "hap",
        "pen"
      ],
      [
        "count",
        "ry"
      ],
      [
        "flo",
        "or"
      ],
      [
        "A",
        "ng"
      ],
      [
        "G",
        "onna"
      ],
      [
        "J",
        "oh"
      ],
      [
        "b",
        "ot"
      ],
      [
        "f",
        "r"
      ],
      [
        "h",
        "oney"
      ],
      [
        "s",
        "on"
      ],
      [
        "me",
        "d"
      ],
      [
        "th",
        "ough"
      ],
      [
        "le",
        "arn"
      ],
      [
        "se",
        "a"
      ],
      [
        "al",
        "ready"
      ],
      [
        "wi",
        "ld"
      ],
      [
        "for",
        "get"
      ],
      [
        "ill",
        "y"
      ],
      [
        "el",
        "se"
      ],
      [
        "ig",
        "g"
      ],
      [
        "try",
        "ing"
      ],
      [
        "gu",
        "ess"
      ],
      [
        "beg",
        "inning"
      ],
      [
        "la",
        "w"
      ],
      [
        "lad",
        "y"
      ],
      [
        "Will",
        "ie"
      ],
      [
        "c",
        "y"
      ],
      [
        "c",
        "ro"
      ],
      [
        "e",
        "ach"
      ],
      [
        "i",
        "an"
      ],
      [
        "i",
        "ch"
      ],
      [
        "m",
        "ountain"
      ],
      [
        "s",
        "ound"
      ],
      [
        "s",
        "mile"
      ],
      [
        "t",
        "ri"
      ],
      [
        "u",
        "l"
      ],
      [
        "w",
        "ar"
      ],
      [
        "y",
        "es"
      ],
      [
        "wi",
        "ggle"
      ],
      [
        "ho",
        "pe"
      ],
      [
        "wor",
        "ds"
      ],
      [
        "look",
        "ing"
      ],
      [
        "turn",
        "ed"
      ],
      [
        "wat",
        "ch"
      ],
      [
        "kill",
        "ed"
      ],
      [
        "Whi",
        "le"
      ],
      [
        "tou",
        "ch"
      ],
      [
        "Ang",
        "el"
      ],
      [
        "b",
        "all"
      ],
      [
        "b",
        "out"
      ],
      [
        "c",
        "tion"
      ],
      [
        "f",
        "un"
      ],
      [
        "f",
        "ound"
      ],
      [
        "g",
        "lad"
      ],
      [
        "i",
        "o"
      ],
      [
        "l",
        "s"
      ],
      [
        "s",
        "ummer"
      ],
      [
        "an",
        "e"
      ],
      [
        "on",
        "t"
      ],
      [
        "or",
        "s"
      ],
      [
        "ome",
        "n"
      ],
      [
        "sh",
        "ine"
      ],
      [
        "ag",
        "g"
      ],
      [
        "ey",
        "ed"
      ],
      [
        "bo",
        "ok"
      ],
      [
        "po",
        "or"
      ],
      [
        "sho",
        "es"
      ],
      [
        "street",
        "s"
      ],
      [
        "Bl",
        "ack"
      ],
      [
        "bell",
        "s"
      ],
      [
        "stra",
        "ight"
      ],
      [
        "H",
        "o"
      ],
      [
        "J",
        "ack"
      ],
      [
        "N",
        "ot"
      ],
      [
        "W",
        "on"
      ],
      [
        "b",
        "us"
      ],
      [
        "c",
        "row"
      ],
      [
        "d",
        "ist"
      ],
      [
        "f",
        "le"
      ],
      [
        "g",
        "ar"
      ],
      [
        "p",
        "ar"
      ],
      [
        "p",
        "ass"
      ],
      [
        "u",
        "se"
      ],
      [
        "ou",
        "th"
      ],
      [
        "ll",
        "ar"
      ],
      [
        "me",
        "nt"
      ],
      [
        "ar",
        "row"
      ],
      [
        "ke",
        "y"
      ],
      [
        "li",
        "p"
      ],
      [
        "sh",
        "in"
      ],
      [
        "am",
        "b"
      ],
      [
        "pe",
        "ace"
      ],
      [
        "any",
        "thing"
      ],
      [
        "want",
        "ed"
      ],
      [
        "walk",
        "ed"
      ],
      [
        "stand",
        "ing"
      ],
      [
        "di",
        "ed"
      ],
      [
        "tru",
        "th"
      ],
      [
        "G",
        "et"
      ],
      [
        "K",
        "ey"
      ],
      [
        "S",
        "e"
      ],
      [
        "a",
        "z"
      ],
      [
        "c",
        "our"
      ],
      [
        "c",
        "ity"
      ],
      [
        "e",
        "asy"
      ],
      [
        "f",
        "ast"
      ],
      [
        "f",
        "ather"
      ],
      [
        "h",
        "ot"
      ],
      [
        "k",
        "id"
      ],
      [
        "m",
        "ar"
      ],
      [
        "m",
        "iss"
      ],
      [
        "p",
        "ic"
      ],
      [
        "p",
        "ick"
      ],
      [
        "r",
        "is"
      ],
      [
        "s",
        "l"
      ],
      [
        "t",
        "ried"
      ],
      [
        "t",
        "une"
      ],
      [
        "re",
        "s"
      ],
      [
        "ve",
        "s"
      ],
      [
        "st",
        "er"
      ],
      [
        "we",
        "e"
      ],
      [
        "sh",
        "ore"
      ],
      [
        "ry",
        "body"
      ],
      [
        "some",
        "thin"
      ],
      [
        "by",
        "e"
      ],
      [
        "mo",
        "ther"
      ],
      [
        "fu",
        "ll"
      ],
      [
        "clo",
        "se"
      ],
      [
        "blow",
        "in"
      ],
      [
        "Ro",
        "ll"
      ],
      [
        "chang",
        "e"
      ],
      [
        "ones",
        "ome"
      ],
      [
        "wall",
        "s"
      ],
      [
        "star",
        "s"
      ],
      [
        "!",
        "”"
      ],
      [
        "C",
        "ause"
      ],
      [
        "F",
        "ather"
      ],
      [
        "O",
        "f"
      ],
      [
        "b",
        "it"
      ],
      [
        "h",
        "it"
      ],
      [
        "k",
        "ne"
      ],
      [
        "p",
        "ie"
      ],
      [
        "r",
        "id"
      ],
      [
        "y",
        "eah"
      ],
      [
        "ou",
        "d"
      ],
      [
        "or",
        "y"
      ],
      [
        "be",
        "at"
      ],
      [
        "li",
        "es"
      ],
      [
        "lo",
        "se"
      ],
      [
        "lo",
        "ver"
      ],
      [
        "wh",
        "ich"
      ],
      [
        "co",
        "ve"
      ],
      [
        "el",
        "s"
      ],
      [
        "bo",
        "th"
      ],
      [
        "could",
        "n"
      ],
      [
        "con",
        "t"
      ],
      [
        "Some",
        "one"
      ],
      [
        "com",
        "ing"
      ],
      [
        "try",
        "in"
      ],
      [
        "av",
        "y"
      ],
      [
        "gre",
        "at"
      ],
      [
        "Jo",
        "ey"
      ],
      [
        "N",
        "ever"
      ],
      [
        "P",
        "ut"
      ],
      [
        "T",
        "ime"
      ],
      [
        "W",
        "igg"
      ],
      [
        "a",
        "wn"
      ],
      [
        "b",
        "s"
      ],
      [
        "b",
        "or"
      ],
      [
        "b",
        "right"
      ],
      [
        "c",
        "tor"
      ],
      [
        "d",
        "ir"
      ],
      [
        "e",
        "at"
      ],
      [
        "h",
        "ung"
      ],
      [
        "n",
        "in"
      ],
      [
        "p",
        "ow"
      ],
      [
        "p",
        "ay"
      ],
      [
        "r",
        "ough"
      ],
      [
        "t",
        "ree"
      ],
      [
        "w",
        "omen"
      ],
      [
        "on",
        "s"
      ],
      [
        "ar",
        "a"
      ],
      [
        "wi",
        "fe"
      ],
      [
        "do",
        "llar"
      ],
      [
        "ave",
        "d"
      ],
      [
        "sa",
        "il"
      ],
      [
        "pe",
        "ar"
      ],
      [
        "ion",
        "s"
      ],
      [
        "any",
        "more"
      ],
      [
        "think",
        "in"
      ],
      [
        "vo",
        "ice"
      ],
      [
        "fill",
        "ed"
      ],
      [
        "Wigg",
        "le"
      ],
      [
        "C",
        "h"
      ],
      [
        "D",
        "id"
      ],
      [
        "E",
        "v"
      ],
      [
        "S",
        "ara"
      ],
      [
        "U",
        "n"
      ],
      [
        "W",
        "as"
      ],
      [
        "a",
        "id"
      ],
      [
        "a",
        "ut"
      ],
      [
        "a",
        "pe"
      ],
      [
        "c",
        "ri"
      ],
      [
        "d",
        "es"
      ],
      [
        "f",
        "ine"
      ],
      [
        "i",
        "z"
      ],
      [
        "i",
        "ther"
      ],
      [
        "l",
        "au"
      ],
      [
        "s",
        "at"
      ],
      [
        "s",
        "ur"
      ],
      [
        "an",
        "k"
      ],
      [
        "re",
        "ed"
      ],
      [
        "at",
        "ed"
      ],
      [
        "at",
        "es"
      ],
      [
        "se",
        "n"
      ],
      [
        "ck",
        "ed"
      ],
      [
        "wor",
        "d"
      ],
      [
        "ey",
        "e"
      ],
      [
        "ear",
        "ly"
      ],
      [
        "walk",
        "ing"
      ],
      [
        "fore",
        "ver"
      ],
      [
        "No",
        "thing"
      ],
      [
        "pre",
        "ss"
      ],
      [
        "ask",
        "ed"
      ],
      [
        "arm",
        "s"
      ],
      [
        "jud",
        "ge"
      ],
      [
        "sil",
        "ver"
      ],
      [
        "Joh",
        "n"
      ],
      [
        "T",
        "own"
      ],
      [
        "Y",
        "eah"
      ],
      [
        "n",
        "or"
      ],
      [
        "p",
        "ath"
      ],
      [
        "s",
        "and"
      ],
      [
        "s",
        "ick"
      ],
      [
        "v",
        "is"
      ],
      [
        "v",
        "ill"
      ],
      [
        "to",
        "p"
      ],
      [
        "or",
        "k"
      ],
      [
        "le",
        "ad"
      ],
      [
        "se",
        "nd"
      ],
      [
        "en",
        "ough"
      ],
      [
        "ri",
        "se"
      ],
      [
        "some",
        "times"
      ],
      [
        "To",
        "o"
      ],
      [
        "thr",
        "ow"
      ],
      [
        "che",
        "s"
      ],
      [
        "morn",
        "in"
      ],
      [
        "high",
        "way"
      ],
      [
        "igh",
        "bor"
      ],
      [
        "flow",
        "ers"
      ],
      [
        "child",
        "ren"
      ],
      [
        "Br",
        "own"
      ],
      [
        "Angel",
        "ina"
      ],
      [
        "B",
        "ro"
      ],
      [
        "M",
        "r"
      ],
      [
        "T",
        "we"
      ],
      [
        "U",
        "p"
      ],
      [
        "a",
        "w"
      ],
      [
        "b",
        "ab"
      ],
      [
        "c",
        "ap"
      ],
      [
        "d",
        "ar"
      ],
      [
        "d",
        "le"
      ],
      [
        "d",
        "awn"
      ],
      [
        "f",
        "ish"
      ],
      [
        "f",
        "irst"
      ],
      [
        "h",
        "ide"
      ],
      [
        "l",
        "onesome"
      ],
      [
        "m",
        "ain"
      ],
      [
        "n",
        "ing"
      ],
      [
        "n",
        "um"
      ],
      [
        "p",
        "i"
      ],
      [
        "s",
        "m"
      ],
      [
        "w",
        "ide"
      ],
      [
        "st",
        "ri"
      ],
      [
        "at",
        "er"
      ],
      [
        "or",
        "t"
      ],
      [
        "li",
        "st"
      ],
      [
        "al",
        "f"
      ],
      [
        "fe",
        "ar"
      ],
      [
        "bl",
        "ame"
      ],
      [
        "ho",
        "od"
      ],
      [
        "any",
        "body"
      ],
      [
        "sto",
        "r"
      ],
      [
        "sp",
        "ir"
      ],
      [
        "call",
        "ed"
      ],
      [
        "bre",
        "ath"
      ],
      [
        "Every",
        "thing"
      ],
      [
        "bro",
        "ther"
      ],
      [
        "sho",
        "ot"
      ],
      [
        "que",
        "en"
      ],
      [
        "pu",
        "ll"
      ],
      [
        "Al",
        "ber"
      ],
      [
        "bir",
        "d"
      ],
      [
        "A",
        "m"
      ],
      [
        "O",
        "ut"
      ],
      [
        "P",
        "o"
      ],
      [
        "W",
        "inter"
      ],
      [
        "b",
        "at"
      ],
      [
        "b",
        "ow"
      ],
      [
        "b",
        "and"
      ],
      [
        "d",
        "ance"
      ],
      [
        "i",
        "ze"
      ],
      [
        "k",
        "iss"
      ],
      [
        "n",
        "er"
      ],
      [
        "o",
        "p"
      ],
      [
        "s",
        "up"
      ],
      [
        "he",
        "s"
      ],
      [
        "at",
        "ure"
      ],
      [
        "le",
        "ve"
      ],
      [
        "se",
        "nt"
      ],
      [
        "ed",
        "le"
      ],
      [
        "ac",
        "es"
      ],
      [
        "we",
        "ep"
      ],
      [
        "de",
        "e"
      ],
      [
        "some",
        "day"
      ],
      [
        "tr",
        "ave"
      ],
      [
        "tr",
        "ack"
      ],
      [
        "wor",
        "th"
      ],
      [
        "um",
        "ble"
      ],
      [
        "To",
        "m"
      ],
      [
        "ap",
        "art"
      ],
      [
        "end",
        "s"
      ],
      [
        "bo",
        "x"
      ],
      [
        "ear",
        "th"
      ],
      [
        "ak",
        "in"
      ],
      [
        "car",
        "ry"
      ],
      [
        "roll",
        "ing"
      ],
      [
        "cke",
        "ts"
      ],
      [
        "hur",
        "t"
      ],
      [
        "cra",
        "zy"
      ],
      [
        "Alber",
        "ta"
      ],
      [
        "A",
        "r"
      ],
      [
        "B",
        "u"
      ],
      [
        "B",
        "illy"
      ],
      [
        "C",
        "at"
      ],
      [
        "F",
        "e"
      ],
      [
        "J",
        "im"
      ],
      [
        "S",
        "ing"
      ],
      [
        "S",
        "ee"
      ],
      [
        "Y",
        "ork"
      ],
      [
        "a",
        "li"
      ],
      [
        "c",
        "ried"
      ],
      [
        "g",
        "ent"
      ],
      [
        "j",
        "e"
      ],
      [
        "m",
        "outh"
      ],
      [
        "on",
        "y"
      ],
      [
        "th",
        "ose"
      ],
      [
        "to",
        "ge"
      ],
      [
        "be",
        "aut"
      ],
      [
        "li",
        "e"
      ],
      [
        "li",
        "ving"
      ],
      [
        "en",
        "e"
      ],
      [
        "ut",
        "e"
      ],
      [
        "ne",
        "ighbor"
      ],
      [
        "ch",
        "ance"
      ],
      [
        "out",
        "side"
      ],
      [
        "was",
        "n"
      ],
      [
        "go",
        "es"
      ],
      [
        "sh",
        "ake"
      ],
      [
        "am",
        "p"
      ],
      [
        "love",
        "d"
      ],
      [
        "ant",
        "s"
      ],
      [
        "any",
        "one"
      ],
      [
        "wo",
        "od"
      ],
      [
        "ile",
        "d"
      ],
      [
        "think",
        "ing"
      ],
      [
        "No",
        "body"
      ],
      [
        "On",
        "ly"
      ],
      [
        "again",
        "st"
      ],
      [
        "mer",
        "cy"
      ],
      [
        "may",
        "be"
      ],
      [
        "burn",
        "ing"
      ],
      [
        "cle",
        "ar"
      ],
      [
        "does",
        "n"
      ],
      [
        "tom",
        "orrow"
      ],
      [
        "hor",
        "se"
      ],
      [
        "shad",
        "ows"
      ],
      [
        "Ru",
        "b"
      ],
      [
        "toge",
        "ther"
      ],
      [
        "J",
        "ud"
      ],
      [
        "O",
        "oh"
      ],
      [
        "Q",
        "ue"
      ],
      [
        "S",
        "ad"
      ],
      [
        "T",
        "en"
      ],
      [
        "b",
        "one"
      ],
      [
        "c",
        "ed"
      ],
      [
        "c",
        "orn"
      ],
      [
        "d",
        "anc"
      ],
      [
        "f",
        "a"
      ],
      [
        "h",
        "a"
      ],
      [
        "k",
        "ed"
      ],
      [
        "s",
        "mo"
      ],
      [
        "s",
        "po"
      ],
      [
        "v",
        "il"
      ],
      [
        "in",
        "t"
      ],
      [
        "re",
        "am"
      ],
      [
        "th",
        "ree"
      ],
      [
        "to",
        "day"
      ],
      [
        "be",
        "ing"
      ],
      [
        "nd",
        "er"
      ],
      [
        "wh",
        "is"
      ],
      [
        "can",
        "not"
      ],
      [
        "ch",
        "ain"
      ],
      [
        "do",
        "g"
      ],
      [
        "fe",
        "lt"
      ],
      [
        "are",
        "d"
      ],
      [
        "got",
        "ta"
      ],
      [
        "bl",
        "in"
      ],
      [
        "co",
        "ver"
      ],
      [
        "get",
        "s"
      ],
      [
        "look",
        "s"
      ],
      [
        "ra",
        "il"
      ],
      [
        "Some",
        "times"
      ],
      [
        "bu",
        "ild"
      ],
      [
        "So",
        "on"
      ],
      [
        "lit",
        "ic"
      ],
      [
        "str",
        "ong"
      ],
      [
        "Be",
        "fore"
      ],
      [
        "beg",
        "an"
      ],
      [
        "land",
        "s"
      ],
      [
        "talk",
        "in"
      ],
      [
        "lu",
        "es"
      ],
      [
        "lu",
        "ck"
      ],
      [
        "ash",
        "ing"
      ],
      [
        "emp",
        "ty"
      ],
      [
        "May",
        "be"
      ],
      [
        "mid",
        "night"
      ],
      [
        "cro",
        "ssed"
      ],
      [
        "vill",
        "e"
      ],
      [
        "Twe",
        "edle"
      ],
      [
        "Que",
        "en"
      ],
      [
        "B",
        "lues"
      ],
      [
        "D",
        "ri"
      ],
      [
        "F",
        "ran"
      ],
      [
        "H",
        "er"
      ],
      [
        "T",
        "ry"
      ],
      [
        "c",
        "ast"
      ],
      [
        "f",
        "ate"
      ],
      [
        "g",
        "y"
      ],
      [
        "i",
        "ed"
      ],
      [
        "i",
        "ous"
      ],
      [
        "m",
        "ur"
      ],
      [
        "m",
        "aking"
      ],
      [
        "p",
        "ound"
      ],
      [
        "s",
        "ang"
      ],
      [
        "s",
        "ign"
      ],
      [
        "t",
        "ong"
      ],
      [
        "y",
        "et"
      ],
      [
        "re",
        "w"
      ],
      [
        "se",
        "ll"
      ],
      [
        "se",
        "es"
      ],
      [
        "se",
        "ven"
      ],
      [
        "be",
        "nd"
      ],
      [
        "is",
        "on"
      ],
      [
        "ch",
        "ur"
      ],
      [
        "we",
        "en"
      ],
      [
        "do",
        "ctor"
      ],
      [
        "am",
        "ong"
      ],
      [
        "de",
        "c"
      ],
      [
        "ok",
        "er"
      ],
      [
        "ie",
        "ld"
      ],
      [
        "want",
        "s"
      ],
      [
        "gr",
        "ave"
      ],
      [
        "every",
        "where"
      ],
      [
        "other",
        "s"
      ],
      [
        "dre",
        "ssed"
      ],
      [
        "bu",
        "y"
      ],
      [
        "pr",
        "ote"
      ],
      [
        "fall",
        "ing"
      ],
      [
        "blow",
        "s"
      ],
      [
        "av",
        "in"
      ],
      [
        "name",
        "s"
      ],
      [
        "burn",
        "ed"
      ],
      [
        "Go",
        "od"
      ],
      [
        "Mo",
        "st"
      ],
      [
        "dri",
        "ft"
      ],
      [
        "cle",
        "an"
      ],
      [
        "sin",
        "ce"
      ],
      [
        "hell",
        "o"
      ],
      [
        "Miss",
        "us"
      ],
      [
        "whe",
        "el"
      ],
      [
        "fr",
        "ont"
      ],
      [
        "list",
        "en"
      ],
      [
        "stor",
        "m"
      ],
      [
        "Fran",
        "k"
      ],
      [
        "C",
        "o"
      ],
      [
        "E",
        "ven"
      ],
      [
        "L",
        "ee"
      ],
      [
        "M",
        "agg"
      ],
      [
        "U",
        "nder"
      ],
      [
        "c",
        "ir"
      ],
      [
        "c",
        "ase"
      ],
      [
        "d",
        "u"
      ],
      [
        "d",
        "ust"
      ],
      [
        "e",
        "red"
      ],
      [
        "f",
        "ing"
      ],
      [
        "f",
        "air"
      ],
      [
        "j",
        "ail"
      ],
      [
        "m",
        "ist"
      ],
      [
        "p",
        "ers"
      ],
      [
        "r",
        "ace"
      ],
      [
        "s",
        "w"
      ],
      [
        "s",
        "wi"
      ],
      [
        "s",
        "ink"
      ],
      [
        "s",
        "ix"
      ],
      [
        "t",
        "ure"
      ],
      [
        "v",
        "alley"
      ],
      [
        "he",
        "avy"
      ],
      [
        "ou",
        "ds"
      ],
      [
        "an",
        "im"
      ],
      [
        "to",
        "ry"
      ],
      [
        "ke",
        "nd"
      ],
      [
        "ro",
        "p"
      ],
      [
        "lo",
        "c"
      ],
      [
        "al",
        "t"
      ],
      [
        "al",
        "se"
      ],
      [
        "do",
        "in"
      ],
      [
        "do",
        "gs"
      ],
      [
        "ir",
        "on"
      ],
      [
        "fe",
        "w"
      ],
      [
        "de",
        "vil"
      ],
      [
        "so",
        "ld"
      ],
      [
        "co",
        "at"
      ],
      [
        "ast",
        "er"
      ],
      [
        "um",
        "s"
      ],
      [
        "po",
        "litic"
      ],
      [
        "good",
        "bye"
      ],
      [
        "Some",
        "thing"
      ],
      [
        "bu",
        "lly"
      ],
      [
        "qu",
        "ick"
      ],
      [
        "di",
        "se"
      ],
      [
        "str",
        "u"
      ],
      [
        "went",
        "y"
      ],
      [
        "keep",
        "s"
      ],
      [
        "Be",
        "cause"
      ],
      [
        "av",
        "ing"
      ],
      [
        "fl",
        "at"
      ],
      [
        "ps",
        "y"
      ],
      [
        "hang",
        "in"
      ],
      [
        "anc",
        "es"
      ],
      [
        "step",
        "s"
      ],
      [
        "boy",
        "s"
      ],
      [
        "pa",
        "id"
      ],
      [
        "cke",
        "t"
      ],
      [
        "aught",
        "er"
      ],
      [
        "crow",
        "d"
      ],
      [
        "dist",
        "ance"
      ],
      [
        "kne",
        "es"
      ],
      [
        "lau",
        "gh"
      ],
      [
        "spir",
        "it"
      ],
      [
        "leve",
        "e"
      ],
      [
        "Magg",
        "ie"
      ],
      [
        "B",
        "et"
      ],
      [
        "C",
        "ould"
      ],
      [
        "D",
        "andy"
      ],
      [
        "L",
        "ist"
      ],
      [
        "M",
        "ar"
      ],
      [
        "M",
        "ister"
      ],
      [
        "R",
        "ed"
      ],
      [
        "S",
        "p"
      ],
      [
        "T",
        "il"
      ],
      [
        "a",
        "live"
      ],
      [
        "b",
        "ur"
      ],
      [
        "c",
        "up"
      ],
      [
        "g",
        "al"
      ],
      [
        "g",
        "low"
      ],
      [
        "g",
        "ate"
      ],
      [
        "h",
        "arm"
      ],
      [
        "h",
        "alf"
      ],
      [
        "n",
        "arrow"
      ],
      [
        "p",
        "rom"
      ],
      [
        "r",
        "s"
      ],
      [
        "s",
        "ville"
      ],
      [
        "w",
        "in"
      ],
      [
        "y",
        "ear"
      ],
      [
        "ñ",
        "or"
      ],
      [
        "in",
        "ess"
      ],
      [
        "re",
        "main"
      ],
      [
        "st",
        "age"
      ],
      [
        "le",
        "y"
      ],
      [
        "se",
        "ar"
      ],
      [
        "ke",
        "t"
      ],
      [
        "id",
        "ent"
      ],
      [
        "ri",
        "e"
      ],
      [
        "for",
        "got"
      ],
      [
        "ti",
        "red"
      ],
      [
        "un",
        "k"
      ],
      [
        "un",
        "to"
      ],
      [
        "are",
        "well"
      ],
      [
        "de",
        "st"
      ],
      [
        "He",
        "y"
      ],
      [
        "tr",
        "ail"
      ],
      [
        "alk",
        "in"
      ],
      [
        "get",
        "ting"
      ],
      [
        "ap",
        "pear"
      ],
      [
        "bo",
        "at"
      ],
      [
        "bo",
        "ot"
      ],
      [
        "ame",
        "d"
      ],
      [
        "po",
        "sed"
      ],
      [
        "gr",
        "ace"
      ],
      [
        "con",
        "d"
      ],
      [
        "con",
        "ce"
      ],
      [
        "Some",
        "body"
      ],
      [
        "qu",
        "it"
      ],
      [
        "live",
        "s"
      ],
      [
        "St",
        "re"
      ],
      [
        "flow",
        "er"
      ],
      [
        "tre",
        "at"
      ],
      [
        "start",
        "ed"
      ],
      [
        "trouble",
        "s"
      ],
      [
        "Sh",
        "ine"
      ],
      [
        "Heart",
        "s"
      ],
      [
        "hour",
        "s"
      ],
      [
        "strang",
        "er"
      ],
      [
        "lim",
        "b"
      ],
      [
        "Pe",
        "ople"
      ],
      [
        "seem",
        "s"
      ],
      [
        "wee",
        "kend"
      ],
      [
        "pow",
        "er"
      ],
      [
        "reed",
        "om"
      ],
      [
        "Brown",
        "sville"
      ],
      [
        "bat",
        "tle"
      ],
      [
        "gent",
        "le"
      ],
      [
        "dise",
        "ase"
      ],
      [
        "List",
        "en"
      ],
      [
        "B",
        "ey"
      ],
      [
        "B",
        "low"
      ],
      [
        "H",
        "as"
      ],
      [
        "H",
        "ave"
      ],
      [
        "H",
        "andy"
      ],
      [
        "R",
        "ing"
      ],
      [
        "R",
        "id"
      ],
      [
        "S",
        "u"
      ],
      [
        "W",
        "or"
      ],
      [
        "a",
        "go"
      ],
      [
        "d",
        "ing"
      ],
      [
        "d",
        "if"
      ],
      [
        "f",
        "ro"
      ],
      [
        "f",
        "alse"
      ],
      [
        "h",
        "all"
      ],
      [
        "h",
        "id"
      ],
      [
        "i",
        "a"
      ],
      [
        "i",
        "re"
      ],
      [
        "i",
        "am"
      ],
      [
        "j",
        "u"
      ],
      [
        "o",
        "ce"
      ],
      [
        "r",
        "ag"
      ],
      [
        "s",
        "of"
      ],
      [
        "t",
        "ear"
      ],
      [
        "w",
        "er"
      ],
      [
        "he",
        "at"
      ],
      [
        "me",
        "s"
      ],
      [
        "st",
        "ick"
      ],
      [
        "or",
        "ry"
      ],
      [
        "it",
        "ar"
      ],
      [
        "li",
        "ft"
      ],
      [
        "ad",
        "y"
      ],
      [
        "ri",
        "st"
      ],
      [
        "ri",
        "es"
      ],
      [
        "wh",
        "ist"
      ],
      [
        "for",
        "d"
      ],
      [
        "ust",
        "s"
      ],
      [
        "ti",
        "e"
      ],
      [
        "ind",
        "e"
      ],
      [
        "fe",
        "ed"
      ],
      [
        "de",
        "ar"
      ],
      [
        "de",
        "al"
      ],
      [
        "bl",
        "ing"
      ],
      [
        "tr",
        "ust"
      ],
      [
        "wor",
        "ry"
      ],
      [
        "ap",
        "ped"
      ],
      [
        "nt",
        "y"
      ],
      [
        "In",
        "to"
      ],
      [
        "walk",
        "s"
      ],
      [
        "ra",
        "ise"
      ],
      [
        "make",
        "s"
      ],
      [
        "con",
        "f"
      ],
      [
        "dre",
        "ss"
      ],
      [
        "bu",
        "ll"
      ],
      [
        "pr",
        "ide"
      ],
      [
        "live",
        "d"
      ],
      [
        "St",
        "and"
      ],
      [
        "St",
        "ay"
      ],
      [
        "Th",
        "ough"
      ],
      [
        "Th",
        "rough"
      ],
      [
        "stre",
        "ng"
      ],
      [
        "far",
        "m"
      ],
      [
        "su",
        "it"
      ],
      [
        "wait",
        "in"
      ],
      [
        "tor",
        "n"
      ],
      [
        "tre",
        "es"
      ],
      [
        "thought",
        "s"
      ],
      [
        "cl",
        "ouds"
      ],
      [
        "pri",
        "ce"
      ],
      [
        "Bro",
        "ken"
      ],
      [
        "Fe",
        "el"
      ],
      [
        "corn",
        "er"
      ],
      [
        "prote",
        "ct"
      ],
      [
        "loc",
        "usts"
      ],
      [
        "sear",
        "ch"
      ],
      [
        "Stre",
        "et"
      ],
      [
        "Bey",
        "ond"
      ],
      [
        "A",
        "h"
      ],
      [
        "B",
        "ring"
      ],
      [
        "D",
        "ay"
      ],
      [
        "D",
        "es"
      ],
      [
        "J",
        "oker"
      ],
      [
        "Q",
        "u"
      ],
      [
        "T",
        "wo"
      ],
      [
        "Y",
        "a"
      ],
      [
        "b",
        "read"
      ],
      [
        "c",
        "ent"
      ],
      [
        "d",
        "am"
      ],
      [
        "d",
        "ra"
      ],
      [
        "f",
        "ield"
      ],
      [
        "h",
        "u"
      ],
      [
        "m",
        "a"
      ],
      [
        "m",
        "is"
      ],
      [
        "m",
        "ad"
      ],
      [
        "m",
        "ag"
      ],
      [
        "n",
        "ed"
      ],
      [
        "p",
        "y"
      ],
      [
        "p",
        "lo"
      ],
      [
        "s",
        "now"
      ],
      [
        "t",
        "able"
      ],
      [
        "y",
        "ell"
      ],
      [
        "ve",
        "d"
      ],
      [
        "or",
        "r"
      ],
      [
        "be",
        "y"
      ],
      [
        "be",
        "cause"
      ],
      [
        "ro",
        "l"
      ],
      [
        "ri",
        "can"
      ],
      [
        "et",
        "er"
      ],
      [
        "de",
        "ser"
      ],
      [
        "ce",
        "ive"
      ],
      [
        "ce",
        "pt"
      ],
      [
        "ep",
        "t"
      ],
      [
        "any",
        "way"
      ],
      [
        "gr",
        "ow"
      ],
      [
        "stand",
        "in"
      ],
      [
        "every",
        "body"
      ],
      [
        "sto",
        "ry"
      ],
      [
        "Some",
        "day"
      ],
      [
        "give",
        "n"
      ],
      [
        "wind",
        "s"
      ],
      [
        "play",
        "ing"
      ],
      [
        "even",
        "ing"
      ],
      [
        "su",
        "ch"
      ],
      [
        "car",
        "let"
      ],
      [
        "cr",
        "u"
      ],
      [
        "talk",
        "ing"
      ],
      [
        "bet",
        "ween"
      ],
      [
        "lu",
        "de"
      ],
      [
        "la",
        "id"
      ],
      [
        "dri",
        "ve"
      ],
      [
        "est",
        "er"
      ],
      [
        "ign",
        "ity"
      ],
      [
        "fin",
        "ally"
      ],
      [
        "stu",
        "ck"
      ],
      [
        "bot",
        "tle"
      ],
      [
        "bot",
        "tom"
      ],
      [
        "pic",
        "ture"
      ],
      [
        "bab",
        "ies"
      ],
      [
        "Winter",
        "lude"
      ],
      [
        "Cat",
        "fish"
      ],
      [
        "fa",
        "ith"
      ],
      [
        "smo",
        "ke"
      ],
      [
        "chur",
        "ch"
      ],
      [
        "Frank",
        "ie"
      ],
      [
        "oce",
        "an"
      ],
      [
        "sof",
        "t"
      ],
      [
        "Joker",
        "man"
      ],
      [
        "'",
        ","
      ],
      [
        "A",
        "bout"
      ],
      [
        "C",
        "om"
      ],
      [
        "C",
        "ept"
      ],
      [
        "J",
        "es"
      ],
      [
        "L",
        "ou"
      ],
      [
        "L",
        "it"
      ],
      [
        "W",
        "o"
      ],
      [
        "f",
        "ut"
      ],
      [
        "f",
        "ive"
      ],
      [
        "h",
        "und"
      ],
      [
        "i",
        "ver"
      ],
      [
        "i",
        "ly"
      ],
      [
        "i",
        "ble"
      ],
      [
        "l",
        "one"
      ],
      [
        "m",
        "it"
      ],
      [
        "n",
        "ce"
      ],
      [
        "n",
        "ic"
      ],
      [
        "p",
        "ing"
      ],
      [
        "s",
        "li"
      ],
      [
        "s",
        "lip"
      ],
      [
        "t",
        "wenty"
      ],
      [
        "v",
        "ie"
      ],
      [
        "th",
        "ie"
      ],
      [
        "st",
        "rip"
      ],
      [
        "se",
        "cond"
      ],
      [
        "of",
        "fe"
      ],
      [
        "ad",
        "dy"
      ],
      [
        "ac",
        "her"
      ],
      [
        "for",
        "m"
      ],
      [
        "ch",
        "air"
      ],
      [
        "now",
        "here"
      ],
      [
        "ti",
        "ght"
      ],
      [
        "un",
        "til"
      ],
      [
        "with",
        "in"
      ],
      [
        "pe",
        "ct"
      ],
      [
        "ra",
        "id"
      ],
      [
        "gr",
        "and"
      ],
      [
        "take",
        "s"
      ],
      [
        "com",
        "p"
      ],
      [
        "turn",
        "ing"
      ],
      [
        "air",
        "s"
      ],
      [
        "Where",
        "ver"
      ],
      [
        "mem",
        "ory"
      ],
      [
        "clo",
        "ser"
      ],
      [
        "spe",
        "ci"
      ],
      [
        "run",
        "nin"
      ],
      [
        "gg",
        "y"
      ],
      [
        "ev",
        "il"
      ],
      [
        "ru",
        "les"
      ],
      [
        "leave",
        "s"
      ],
      [
        "Tr",
        "ouble"
      ],
      [
        "strang",
        "e"
      ],
      [
        "cra",
        "w"
      ],
      [
        "twi",
        "st"
      ],
      [
        "twi",
        "ce"
      ],
      [
        "gam",
        "ble"
      ],
      [
        "bus",
        "iness"
      ],
      [
        "dir",
        "t"
      ],
      [
        "hung",
        "ry"
      ],
      [
        "sat",
        "is"
      ],
      [
        "sen",
        "se"
      ],
      [
        "num",
        "ber"
      ],
      [
        "sup",
        "posed"
      ],
      [
        "Tom",
        "orrow"
      ],
      [
        "neighbor",
        "hood"
      ],
      [
        "Dri",
        "ft"
      ],
      [
        "hund",
        "red"
      ],
      [
        "A",
        "me"
      ],
      [
        "B",
        "ir"
      ],
      [
        "B",
        "ig"
      ],
      [
        "D",
        "u"
      ],
      [
        "E",
        "ver"
      ],
      [
        "E",
        "ast"
      ],
      [
        "F",
        "o"
      ],
      [
        "G",
        "u"
      ],
      [
        "H",
        "ad"
      ],
      [
        "H",
        "im"
      ],
      [
        "J",
        "ane"
      ],
      [
        "K",
        "ing"
      ],
      [
        "M",
        "emp"
      ],
      [
        "S",
        "aid"
      ],
      [
        "S",
        "carlet"
      ],
      [
        "W",
        "ay"
      ],
      [
        "c",
        "es"
      ],
      [
        "d",
        "ignity"
      ],
      [
        "e",
        "k"
      ],
      [
        "f",
        "at"
      ],
      [
        "f",
        "ac"
      ],
      [
        "f",
        "reedom"
      ],
      [
        "j",
        "ump"
      ],
      [
        "l",
        "ter"
      ],
      [
        "n",
        "one"
      ],
      [
        "r",
        "at"
      ],
      [
        "r",
        "ay"
      ],
      [
        "s",
        "y"
      ],
      [
        "s",
        "me"
      ],
      [
        "s",
        "ight"
      ],
      [
        "s",
        "orrow"
      ],
      [
        "s",
        "ister"
      ],
      [
        "v",
        "ic"
      ],
      [
        "w",
        "ast"
      ],
      [
        "x",
        "ford"
      ],
      [
        "y",
        "e"
      ],
      [
        "he",
        "t"
      ],
      [
        "re",
        "nt"
      ],
      [
        "be",
        "hold"
      ],
      [
        "ad",
        "ise"
      ],
      [
        "ro",
        "de"
      ],
      [
        "lo",
        "vin"
      ],
      [
        "your",
        "s"
      ],
      [
        "for",
        "give"
      ],
      [
        "ch",
        "ar"
      ],
      [
        "no",
        "se"
      ],
      [
        "ti",
        "ed"
      ],
      [
        "ard",
        "en"
      ],
      [
        "il",
        "k"
      ],
      [
        "ang",
        "er"
      ],
      [
        "ang",
        "el"
      ],
      [
        "ple",
        "nty"
      ],
      [
        "br",
        "and"
      ],
      [
        "gr",
        "ab"
      ],
      [
        "heart",
        "s"
      ],
      [
        "With",
        "out"
      ],
      [
        "sto",
        "le"
      ],
      [
        "mu",
        "d"
      ],
      [
        "qu",
        "ite"
      ],
      [
        "bre",
        "a"
      ],
      [
        "ex",
        "plo"
      ],
      [
        "blow",
        "ing"
      ],
      [
        "fi",
        "ed"
      ],
      [
        "te",
        "red"
      ],
      [
        "ation",
        "s"
      ],
      [
        "than",
        "k"
      ],
      [
        "spe",
        "nd"
      ],
      [
        "wr",
        "it"
      ],
      [
        "bro",
        "ke"
      ],
      [
        "blo",
        "ck"
      ],
      [
        "Ro",
        "ck"
      ],
      [
        "wait",
        "ing"
      ],
      [
        "wait",
        "ed"
      ],
      [
        "af",
        "raid"
      ],
      [
        "roll",
        "in"
      ],
      [
        "burn",
        "in"
      ],
      [
        "beli",
        "ev"
      ],
      [
        "Go",
        "in"
      ],
      [
        "Mo",
        "ore"
      ],
      [
        "dark",
        "ness"
      ],
      [
        "hap",
        "py"
      ],
      [
        "pin",
        "ess"
      ],
      [
        "Look",
        "in"
      ],
      [
        "pray",
        "er"
      ],
      [
        "slow",
        "ly"
      ],
      [
        "Me",
        "et"
      ],
      [
        "Tr",
        "ust"
      ],
      [
        "cat",
        "ch"
      ],
      [
        "Bo",
        "y"
      ],
      [
        "shad",
        "ow"
      ],
      [
        "stu",
        "ff"
      ],
      [
        "gam",
        "blin"
      ],
      [
        "shin",
        "ing"
      ],
      [
        "Se",
        "en"
      ],
      [
        "cour",
        "se"
      ],
      [
        "iz",
        "on"
      ],
      [
        "Jud",
        "as"
      ],
      [
        "cir",
        "c"
      ],
      [
        "sold",
        "i"
      ],
      [
        "Rid",
        "er"
      ],
      [
        "dif",
        "fe"
      ],
      [
        "whist",
        "le"
      ],
      [
        "Jes",
        "us"
      ],
      [
        "Lit",
        "tle"
      ],
      [
        "fut",
        "ure"
      ],
      [
        "Drift",
        "in"
      ],
      [
        "Memp",
        "his"
      ],
      [
        "sme",
        "ll"
      ],
      [
        "A",
        "no"
      ],
      [
        "N",
        "ight"
      ],
      [
        "O",
        "ld"
      ],
      [
        "O",
        "pen"
      ],
      [
        "P",
        "re"
      ],
      [
        "R",
        "ow"
      ],
      [
        "S",
        "at"
      ],
      [
        "T",
        "urn"
      ],
      [
        "Y",
        "e"
      ],
      [
        "b",
        "ree"
      ],
      [
        "b",
        "ark"
      ],
      [
        "b",
        "ones"
      ],
      [
        "c",
        "ow"
      ],
      [
        "c",
        "lu"
      ],
      [
        "c",
        "ards"
      ],
      [
        "d",
        "rop"
      ],
      [
        "g",
        "ut"
      ],
      [
        "g",
        "od"
      ],
      [
        "g",
        "ain"
      ],
      [
        "g",
        "arden"
      ],
      [
        "h",
        "ound"
      ],
      [
        "h",
        "um"
      ],
      [
        "i",
        "sed"
      ],
      [
        "k",
        "in"
      ],
      [
        "l",
        "ater"
      ],
      [
        "m",
        "ilk"
      ],
      [
        "n",
        "ice"
      ],
      [
        "o",
        "st"
      ],
      [
        "p",
        "ill"
      ],
      [
        "p",
        "hi"
      ],
      [
        "s",
        "ile"
      ],
      [
        "s",
        "im"
      ],
      [
        "t",
        "end"
      ],
      [
        "v",
        "io"
      ],
      [
        "w",
        "and"
      ],
      [
        "w",
        "ine"
      ],
      [
        "in",
        "y"
      ],
      [
        "re",
        "ach"
      ],
      [
        "me",
        "ant"
      ],
      [
        "le",
        "an"
      ],
      [
        "se",
        "cre"
      ],
      [
        "it",
        "ic"
      ],
      [
        "be",
        "side"
      ],
      [
        "gh",
        "ost"
      ],
      [
        "as",
        "leep"
      ],
      [
        "ro",
        "y"
      ],
      [
        "ro",
        "ck"
      ],
      [
        "es",
        "ne"
      ],
      [
        "lo",
        "ad"
      ],
      [
        "wi",
        "se"
      ],
      [
        "ne",
        "ck"
      ],
      [
        "et",
        "s"
      ],
      [
        "et",
        "y"
      ],
      [
        "we",
        "l"
      ],
      [
        "ti",
        "ll"
      ],
      [
        "do",
        "m"
      ],
      [
        "un",
        "known"
      ],
      [
        "co",
        "l"
      ],
      [
        "tr",
        "ay"
      ],
      [
        "ide",
        "a"
      ],
      [
        "she",
        "lter"
      ],
      [
        "ho",
        "le"
      ],
      [
        "wor",
        "se"
      ],
      [
        "get",
        "tin"
      ],
      [
        "ple",
        "d"
      ],
      [
        "if",
        "ul"
      ],
      [
        "ame",
        "s"
      ],
      [
        "In",
        "side"
      ],
      [
        "po",
        "ckets"
      ],
      [
        "ic",
        "on"
      ],
      [
        "ble",
        "ed"
      ],
      [
        "our",
        "ine"
      ],
      [
        "light",
        "s"
      ],
      [
        "feel",
        "in"
      ],
      [
        "feel",
        "ing"
      ],
      [
        "sto",
        "od"
      ],
      [
        "No",
        "thin"
      ],
      [
        "road",
        "s"
      ],
      [
        "qu",
        "esne"
      ],
      [
        "di",
        "am"
      ],
      [
        "dr",
        "own"
      ],
      [
        "Th",
        "ree"
      ],
      [
        "ex",
        "plain"
      ],
      [
        "stre",
        "am"
      ],
      [
        "Li",
        "fe"
      ],
      [
        "wat",
        "ched"
      ],
      [
        "su",
        "ck"
      ],
      [
        "gu",
        "itar"
      ],
      [
        "te",
        "en"
      ],
      [
        "An",
        "y"
      ],
      [
        "run",
        "ning"
      ],
      [
        "Ro",
        "ad"
      ],
      [
        "name",
        "d"
      ],
      [
        "hang",
        "ing"
      ],
      [
        "break",
        "ing"
      ],
      [
        "moon",
        "light"
      ],
      [
        "rain",
        "in"
      ],
      [
        "hap",
        "piness"
      ],
      [
        "dis",
        "appear"
      ],
      [
        "Say",
        "ing"
      ],
      [
        "tom",
        "b"
      ],
      [
        "Sh",
        "ake"
      ],
      [
        "ff",
        "er"
      ],
      [
        "Whi",
        "ch"
      ],
      [
        "tou",
        "ched"
      ],
      [
        "knock",
        "in"
      ],
      [
        "hor",
        "izon"
      ],
      [
        "foot",
        "steps"
      ],
      [
        "amb",
        "ourine"
      ],
      [
        "cont",
        "rol"
      ],
      [
        "dir",
        "ty"
      ],
      [
        "Ch",
        "rist"
      ],
      [
        "umble",
        "d"
      ],
      [
        "Ar",
        "ab"
      ],
      [
        "Rub",
        "icon"
      ],
      [
        "anim",
        "als"
      ],
      [
        "politic",
        "al"
      ],
      [
        "conce",
        "it"
      ],
      [
        "Blow",
        "in"
      ],
      [
        "inde",
        "ed"
      ],
      [
        "bey",
        "ond"
      ],
      [
        "Du",
        "quesne"
      ],
      [
        "Ano",
        "ther"
      ],
      [
        "C",
        "ar"
      ],
      [
        "C",
        "ame"
      ],
      [
        "C",
        "orr"
      ],
      [
        "D",
        "um"
      ],
      [
        "D",
        "ee"
      ],
      [
        "E",
        "den"
      ],
      [
        "H",
        "ome"
      ],
      [
        "H",
        "ell"
      ],
      [
        "K",
        "e"
      ],
      [
        "M",
        "ary"
      ],
      [
        "O",
        "xford"
      ],
      [
        "P",
        "at"
      ],
      [
        "T",
        "ambourine"
      ],
      [
        "W",
        "ait"
      ],
      [
        "b",
        "ri"
      ],
      [
        "b",
        "are"
      ],
      [
        "b",
        "ile"
      ],
      [
        "c",
        "er"
      ],
      [
        "c",
        "ab"
      ],
      [
        "c",
        "ape"
      ],
      [
        "f",
        "ter"
      ],
      [
        "g",
        "ree"
      ],
      [
        "h",
        "ar"
      ],
      [
        "k",
        "ick"
      ],
      [
        "m",
        "ome"
      ],
      [
        "m",
        "ir"
      ],
      [
        "o",
        "b"
      ],
      [
        "p",
        "al"
      ],
      [
        "p",
        "ur"
      ],
      [
        "p",
        "ack"
      ],
      [
        "p",
        "ure"
      ],
      [
        "r",
        "hy"
      ],
      [
        "s",
        "ac"
      ],
      [
        "s",
        "al"
      ],
      [
        "s",
        "orry"
      ],
      [
        "t",
        "aking"
      ],
      [
        "u",
        "ff"
      ],
      [
        "v",
        "ain"
      ],
      [
        "w",
        "ound"
      ],
      [
        "w",
        "ink"
      ],
      [
        "w",
        "arm"
      ],
      [
        "re",
        "fle"
      ],
      [
        "ll",
        "ing"
      ],
      [
        "th",
        "rew"
      ],
      [
        "at",
        "ch"
      ],
      [
        "se",
        "ñor"
      ],
      [
        "it",
        "a"
      ],
      [
        "be",
        "neath"
      ],
      [
        "ro",
        "b"
      ],
      [
        "ro",
        "se"
      ],
      [
        "al",
        "most"
      ],
      [
        "one",
        "st"
      ],
      [
        "ne",
        "ither"
      ],
      [
        "ch",
        "ime"
      ],
      [
        "we",
        "ather"
      ],
      [
        "ti",
        "cket"
      ],
      [
        "sh",
        "out"
      ],
      [
        "sh",
        "ame"
      ],
      [
        "do",
        "ing"
      ],
      [
        "ave",
        "s"
      ],
      [
        "ave",
        "y"
      ],
      [
        "ry",
        "thing"
      ],
      [
        "de",
        "gree"
      ],
      [
        "He",
        "ard"
      ],
      [
        "art",
        "er"
      ],
      [
        "hat",
        "e"
      ],
      [
        "pl",
        "an"
      ],
      [
        "say",
        "in"
      ],
      [
        "ang",
        "els"
      ],
      [
        "ter",
        "s"
      ],
      [
        "him",
        "self"
      ],
      [
        "any",
        "where"
      ],
      [
        "br",
        "own"
      ],
      [
        "gr",
        "ass"
      ],
      [
        "fo",
        "ld"
      ],
      [
        "com",
        "plain"
      ],
      [
        "head",
        "s"
      ],
      [
        "sp",
        "ark"
      ],
      [
        "new",
        "s"
      ],
      [
        "sk",
        "ies"
      ],
      [
        "pr",
        "in"
      ],
      [
        "door",
        "way"
      ],
      [
        "call",
        "in"
      ],
      [
        "fu",
        "lly"
      ],
      [
        "Th",
        "row"
      ],
      [
        "clo",
        "ck"
      ],
      [
        "fall",
        "in"
      ],
      [
        "ex",
        "pect"
      ],
      [
        "ord",
        "er"
      ],
      [
        "su",
        "gar"
      ],
      [
        "su",
        "ffer"
      ],
      [
        "car",
        "s"
      ],
      [
        "cr",
        "itic"
      ],
      [
        "might",
        "y"
      ],
      [
        "girl",
        "s"
      ],
      [
        "sc",
        "ream"
      ],
      [
        "sleep",
        "ing"
      ],
      [
        "step",
        "ped"
      ],
      [
        "Say",
        "in"
      ],
      [
        "lin",
        "es"
      ],
      [
        "pain",
        "t"
      ],
      [
        "Bl",
        "ue"
      ],
      [
        "pa",
        "wn"
      ],
      [
        "gold",
        "en"
      ],
      [
        "jo",
        "b"
      ],
      [
        "jo",
        "y"
      ],
      [
        "jud",
        "g"
      ],
      [
        "min",
        "ute"
      ],
      [
        "mid",
        "dle"
      ],
      [
        "pas",
        "sed"
      ],
      [
        "pas",
        "ses"
      ],
      [
        "happen",
        "ed"
      ],
      [
        "learn",
        "ed"
      ],
      [
        "mountain",
        "s"
      ],
      [
        "fun",
        "ny"
      ],
      [
        "fle",
        "sh"
      ],
      [
        "pick",
        "ed"
      ],
      [
        "ris",
        "in"
      ],
      [
        "pie",
        "ce"
      ],
      [
        "rid",
        "ing"
      ],
      [
        "cri",
        "me"
      ],
      [
        "stri",
        "fe"
      ],
      [
        "beaut",
        "iful"
      ],
      [
        "Sad",
        "ie"
      ],
      [
        "danc",
        "ing"
      ],
      [
        "gy",
        "psy"
      ],
      [
        "mur",
        "der"
      ],
      [
        "tong",
        "ue"
      ],
      [
        "pers",
        "on"
      ],
      [
        "alt",
        "ar"
      ],
      [
        "boot",
        "s"
      ],
      [
        "Wor",
        "ld"
      ],
      [
        "ester",
        "day"
      ],
      [
        "speci",
        "al"
      ],
      [
        "brea",
        "the"
      ],
      [
        "Corr",
        "ina"
      ],
      [
        "Ke",
        "ep"
      ],
      [
        "mome",
        "nt"
      ],
      [
        "A",
        "d"
      ],
      [
        "B",
        "ay"
      ],
      [
        "D",
        "ark"
      ],
      [
        "D",
        "avey"
      ],
      [
        "F",
        "irst"
      ],
      [
        "F",
        "arewell"
      ],
      [
        "G",
        "ive"
      ],
      [
        "G",
        "old"
      ],
      [
        "G",
        "irl"
      ],
      [
        "K",
        "ings"
      ],
      [
        "K",
        "nock"
      ],
      [
        "M",
        "u"
      ],
      [
        "M",
        "ake"
      ],
      [
        "M",
        "other"
      ],
      [
        "M",
        "ont"
      ],
      [
        "R",
        "ight"
      ],
      [
        "S",
        "tr"
      ],
      [
        "S",
        "aved"
      ],
      [
        "T",
        "alkin"
      ],
      [
        "a",
        "sed"
      ],
      [
        "b",
        "t"
      ],
      [
        "b",
        "ust"
      ],
      [
        "b",
        "ash"
      ],
      [
        "c",
        "a"
      ],
      [
        "c",
        "aught"
      ],
      [
        "c",
        "limb"
      ],
      [
        "d",
        "in"
      ],
      [
        "d",
        "ry"
      ],
      [
        "d",
        "ouble"
      ],
      [
        "d",
        "aughter"
      ],
      [
        "e",
        "ast"
      ],
      [
        "f",
        "am"
      ],
      [
        "f",
        "ail"
      ],
      [
        "f",
        "act"
      ],
      [
        "g",
        "her"
      ],
      [
        "i",
        "et"
      ],
      [
        "i",
        "fe"
      ],
      [
        "i",
        "ent"
      ],
      [
        "i",
        "ence"
      ],
      [
        "k",
        "y"
      ],
      [
        "l",
        "ord"
      ],
      [
        "l",
        "ves"
      ],
      [
        "l",
        "oud"
      ],
      [
        "m",
        "or"
      ],
      [
        "m",
        "as"
      ],
      [
        "m",
        "us"
      ],
      [
        "m",
        "akin"
      ],
      [
        "n",
        "ature"
      ],
      [
        "o",
        "oh"
      ],
      [
        "p",
        "at"
      ],
      [
        "p",
        "air"
      ],
      [
        "p",
        "ity"
      ],
      [
        "r",
        "in"
      ],
      [
        "r",
        "ad"
      ],
      [
        "r",
        "ang"
      ],
      [
        "r",
        "um"
      ],
      [
        "t",
        "ail"
      ],
      [
        "w",
        "is"
      ],
      [
        "w",
        "us"
      ],
      [
        "the",
        "art"
      ],
      [
        "an",
        "go"
      ],
      [
        "on",
        "ed"
      ],
      [
        "th",
        "ir"
      ],
      [
        "st",
        "airs"
      ],
      [
        "ow",
        "ed"
      ],
      [
        "se",
        "at"
      ],
      [
        "ed",
        "ge"
      ],
      [
        "er",
        "ness"
      ],
      [
[...]
