{
  "version": "1.0",
  "truncation": null,
  "padding": null,
  "added_tokens": [
    {
      "id": 0,
      "content": "[PAD]",
      "single_word": false,
      "lstrip": false,
      "rstrip": false,
      "normalized": false,
      "special": true
    },
    {
      "id": 1,
      "content": "[UNK]",
      "single_word": false,
      "lstrip": false,
      "rstrip": false,
      "normalized": false,
      "special": true
    },
    {
      "id": 2,
      "content": "[MASK]",
      "single_word": false,
      "lstrip": false,
      "rstrip": false,
      "normalized": false,
      "special": true
    },
    {
      "id": 3,
      "content": "[CLS]",
      "single_word": false,
      "lstrip": false,
      "rstrip": false,
      "normalized": false,
      "special": true
    },
    {
      "id": 4,
      "content": "[SEP]",
      "single_word": false,
      "lstrip": false,
      "rstrip": false,
      "normalized": false,
      "special": true
    }
  ],
  "normalizer": null,
  "pre_tokenizer": {
    "type": "Whitespace"
  },
  "post_processor": null,
  "decoder": null,
  "model": {
    "type": "BPE",
    "dropout": null,
    "unk_token": "[UNK]",
    "continuing_subword_prefix": null,
    "end_of_word_suffix": null,
    "fuse_unk": false,
    "byte_fallback": false,
    "ignore_merges": false,
    "vocab": {
      "[PAD]": 0,
      "[UNK]": 1,
      "[MASK]": 2,
      "[CLS]": 3,
      "[SEP]": 4,
      "!": 5,
      "\"": 6,
      "#": 7,
      "&": 8,
      "'": 9,
      "(": 10,
      ")": 11,
      ",": 12,
      "-": 13,
      ".": 14,
      "/": 15,
      "0": 16,
      "1": 17,
      "2": 18,
      "3": 19,
      "4": 20,
      "5": 21,
      "6": 22,
      "7": 23,
      "8": 24,
      "9": 25,
      ":": 26,
      ";": 27,
      "?": 28,
      "A": 29,
      "B": 30,
      "C": 31,
      "D": 32,
      "E": 33,
      "F": 34,
      "G": 35,
      "H": 36,
      "I": 37,
      "J": 38,
      "K": 39,
      "L": 40,
      "M": 41,
      "N": 42,
      "O": 43,
      "P": 44,
      "Q": 45,
      "R": 46,
      "S": 47,
      "T": 48,
      "U": 49,
      "V": 50,
      "W": 51,
      "X": 52,
      "Y": 53,
      "Z": 54,
      "`": 55,
      "a": 56,
      "b": 57,
      "c": 58,
      "d": 59,
      "e": 60,
      "f": 61,
      "g": 62,
      "h": 63,
      "i": 64,
      "j": 65,
      "k": 66,
      "l": 67,
      "m": 68,
      "n": 69,
      "o": 70,
      "p": 71,
      "q": 72,
      "r": 73,
      "s": 74,
      "t": 75,
      "u": 76,
      "v": 77,
      "w": 78,
      "x": 79,
      "y": 80,
      "z": 81,
      "¥": 82,
      "©": 83,
      "é": 84,
      "ñ": 85,
      "ó": 86,
      "ü": 87,
      "–": 88,
      "—": 89,
      "‘": 90,
      "’": 91,
      "“": 92,
      "”": 93,
      "…": 94,
      "he": 95,
      "in": 96,
      "ou": 97,
      "the": 98,
      "an": 99,
      "re": 100,
      "on": 101,
      "ll": 102,
      "you": 103,
      "me": 104,
      "th": 105,
      "to": 106,
      "ve": 107,
      "st": 108,
      "at": 109,
      "ow": 110,
      "ing": 111,
      "or": 112,
      "ar": 113,
      "and": 114,
      "le": 115,
      "se": 116,
      "it": 117,
      "be": 118,
      "ay": 119,
      "nd": 120,
      "is": 121,
      "of": 122,
      "ed": 123,
      "er": 124,
      "gh": 125,
      "as": 126,
      "ke": 127,
      "li": 128,
      "ot": 129,
      "ad": 130,
      "ro": 131,
      "es": 132,
      "my": 133,
      "all": 134,
      "en": 135,
      "id": 136,
      "ome": 137,
      "ld": 138,
      "ac": 139,
      "lo": 140,
      "ght": 141,
      "The": 142,
      "al": 143,
      "ut": 144,
      "ver": 145,
      "one": 146,
      "your": 147,
      "wi": 148,
      "And": 149,
      "ri": 150,
      "that": 151,
      "You": 152,
      "ne": 153,
      "ell": 154,
      "wh": 155,
      "for": 156,
      "et": 157,
      "own": 158,
      "od": 159,
      "ain": 160,
      "can": 161,
      "ch": 162,
      "ust": 163,
      "no": 164,
      "out": 165,
      "now": 166,
      "we": 167,
      "was": 168,
      "go": 169,
      "ti": 170,
      "sh": 171,
      "do": 172,
      "ave": 173,
      "ir": 174,
      "ind": 175,
      "up": 176,
      "ab": 177,
      "ry": 178,
      "way": 179,
      "un": 180,
      "man": 181,
      "with": 182,
      "fe": 183,
      "ight": 184,
      "here": 185,
      "ill": 186,
      "down": 187,
      "are": 188,
      "am": 189,
      "ore": 190,
      "na": 191,
      "ur": 192,
      "ly": 193,
      "know": 194,
      "ake": 195,
      "they": 196,
      "de": 197,
      "got": 198,
      "ce": 199,
      "ok": 200,
      "thing": 201,
      "some": 202,
      "He": 203,
      "hen": 204,
      "like": 205,
      "ack": 206,
      "ck": 207,
      "But": 208,
      "hi": 209,
      "sa": 210,
      "ong": 211,
      "rom": 212,
      "ould": 213,
      "so": 214,
      "don": 215,
      "just": 216,
      "his": 217,
      "pe": 218,
      "time": 219,
      "bl": 220,
      "ther": 221,
      "Well": 222,
      "co": 223,
      "tr": 224,
      "art": 225,
      "ound": 226,
      "there": 227,
      "ide": 228,
      "see": 229,
      "hat": 230,
      "what": 231,
      "el": 232,
      "pl": 233,
      "she": 234,
      "ep": 235,
      "ho": 236,
      "her": 237,
      "say": 238,
      "from": 239,
      "not": 240,
      "wor": 241,
      "ag": 242,
      "have": 243,
      "alk": 244,
      "It": 245,
      "ard": 246,
      "love": 247,
      "il": 248,
      "ever": 249,
      "ant": 250,
      "onna": 251,
      "ang": 252,
      "ace": 253,
      "ey": 254,
      "ody": 255,
      "day": 256,
      "ter": 257,
      "get": 258,
      "ast": 259,
      "body": 260,
      "ink": 261,
      "ine": 262,
      "come": 263,
      "gonna": 264,
      "ough": 265,
      "ple": 266,
      "too": 267,
      "ion": 268,
      "um": 269,
      "To": 270,
      "by": 271,
      "back": 272,
      "him": 273,
      "ap": 274,
      "said": 275,
      "end": 276,
      "more": 277,
      "ss": 278,
      "nt": 279,
      "bo": 280,
      "been": 281,
      "look": 282,
      "but": 283,
      "any": 284,
      "if": 285,
      "She": 286,
      "ie": 287,
      "mo": 288,
      "this": 289,
      "ue": 290,
      "They": 291,
      "When": 292,
      "who": 293,
      "will": 294,
      "where": 295,
      "urn": 296,
      "night": 297,
      "ame": 298,
      "right": 299,
      "aby": 300,
      "In": 301,
      "low": 302,
      "ear": 303,
      "po": 304,
      "when": 305,
      "ent": 306,
      "ak": 307,
      "could": 308,
      "want": 309,
      "walk": 310,
      "ic": 311,
      "us": 312,
      "did": 313,
      "If": 314,
      "wo": 315,
      "ile": 316,
      "sed": 317,
      "ive": 318,
      "red": 319,
      "thr": 320,
      "br": 321,
      "Oh": 322,
      "ig": 323,
      "think": 324,
      "never": 325,
      "That": 326,
      "ble": 327,
      "long": 328,
      "side": 329,
      "tell": 330,
      "eve": 331,
      "au": 332,
      "our": 333,
      "ra": 334,
      "orn": 335,
      "ate": 336,
      "ers": 337,
      "gr": 338,
      "baby": 339,
      "heart": 340,
      "them": 341,
      "ist": 342,
      "ath": 343,
      "ith": 344,
      "let": 345,
      "Don": 346,
      "make": 347,
      "fore": 348,
      "We": 349,
      "had": 350,
      "lf": 351,
      "ure": 352,
      "There": 353,
      "ess": 354,
      "light": 355,
      "good": 356,
      "und": 357,
      "feel": 358,
      "ase": 359,
      "about": 360,
      "fo": 361,
      "were": 362,
      "em": 363,
      "through": 364,
      "con": 365,
      "stand": 366,
      "every": 367,
      "hand": 368,
      "take": 369,
      "With": 370,
      "away": 371,
      "sto": 372,
      "wn": 373,
      "ber": 374,
      "No": 375,
      "would": 376,
      "My": 377,
      "Some": 378,
      "other": 379,
      "com": 380,
      "ree": 381,
      "how": 382,
      "into": 383,
      "ty": 384,
      "around": 385,
      "dre": 386,
      "head": 387,
      "need": 388,
      "mind": 389,
      "sp": 390,
      "im": 391,
      "tle": 392,
      "turn": 393,
      "self": 394,
      "ade": 395,
      "ick": 396,
      "ft": 397,
      "their": 398,
      "read": 399,
      "eyes": 400,
      "om": 401,
      "air": 402,
      "give": 403,
      "mu": 404,
      "wind": 405,
      "bu": 406,
      "ge": 407,
      "row": 408,
      "road": 409,
      "new": 410,
      "sk": 411,
      "So": 412,
      "oney": 413,
      "play": 414,
      "very": 415,
      "What": 416,
      "qu": 417,
      "ity": 418,
      "ople": 419,
      "All": 420,
      "For": 421,
      "Now": 422,
      "ng": 423,
      "pr": 424,
      "ous": 425,
      "still": 426,
      "ark": 427,
      "door": 428,
      "world": 429,
      "won": 430,
      "live": 431,
      "St": 432,
      "call": 433,
      "lit": 434,
      "ount": 435,
      "ways": 436,
      "hard": 437,
      "oh": 438,
      "old": 439,
      "Where": 440,
      "di": 441,
      "over": 442,
      "sun": 443,
      "must": 444,
      "only": 445,
      "dr": 446,
      "gone": 447,
      "pre": 448,
      "mem": 449,
      "fri": 450,
      "under": 451,
      "bre": 452,
      "che": 453,
      "fu": 454,
      "str": 455,
      "On": 456,
      "Th": 457,
      "clo": 458,
      "fall": 459,
      "ol": 460,
      "even": 461,
      "friend": 462,
      "Lo": 463,
      "ex": 464,
      "stre": 465,
      "iss": 466,
      "place": 467,
      "people": 468,
      "off": 469,
      "life": 470,
      "Li": 471,
      "wat": 472,
      "well": 473,
      "hear": 474,
      "ord": 475,
      "pen": 476,
      "again": 477,
      "face": 478,
      "try": 479,
      "went": 480,
      "town": 481,
      "keep": 482,
      "Who": 483,
      "ait": 484,
      "far": 485,
      "su": 486,
      "much": 487,
      "lay": 488,
      "blow": 489,
      "car": 490,
      "ought": 491,
      "ish": 492,
      "Every": 493,
      "gu": 494,
      "always": 495,
      "ears": 496,
      "fi": 497,
      "te": 498,
      "ally": 499,
      "times": 500,
      "Be": 501,
      "God": 502,
      "morn": 503,
      "ance": 504,
      "sing": 505,
      "ation": 506,
      "beg": 507,
      "things": 508,
      "hold": 509,
      "woman": 510,
      "home": 511,
      "land": 512,
      "swe": 513,
      "ts": 514,
      "then": 515,
      "thin": 516,
      "than": 517,
      "ser": 518,
      "before": 519,
      "spe": 520,
      "ud": 521,
      "wr": 522,
      "An": 523,
      "Just": 524,
      "bro": 525,
      "made": 526,
      "run": 527,
      "men": 528,
      "ail": 529,
      "cr": 530,
      "last": 531,
      "might": 532,
      "put": 533,
      "Then": 534,
      "work": 535,
      "dream": 536,
      "blo": 537,
      "has": 538,
      "ach": 539,
      "irl": 540,
      "something": 541,
      "high": 542,
      "says": 543,
      "little": 544,
      "Ro": 545,
      "gg": 546,
      "ton": 547,
      "wait": 548,
      "ask": 549,
      "av": 550,
      "ild": 551,
      "ite": 552,
      "name": 553,
      "ause": 554,
      "As": 555,
      "ather": 556,
      "talk": 557,
      "bet": 558,
      "ried": 559,
      "going": 560,
      "af": 561,
      "lu": 562,
      "ouble": 563,
      "bed": 564,
      "chang": 565,
      "nothing": 566,
      "sho": 567,
      "member": 568,
      "ies": 569,
      "la": 570,
      "ped": 571,
      "mer": 572,
      "ross": 573,
      "ev": 574,
      "may": 575,
      "ones": 576,
      "tor": 577,
      "cry": 578,
      "ds": 579,
      "ama": 580,
      "ready": 581,
      "street": 582,
      "?”": 583,
      "Is": 584,
      "kind": 585,
      "mile": 586,
      "ct": 587,
      "lad": 588,
      "many": 589,
      "From": 590,
      "ee": 591,
      "find": 592,
      "ice": 593,
      "ings": 594,
      "ses": 595,
      "ass": 596,
      "roll": 597,
      "fl": 598,
      "wall": 599,
      "leep": 600,
      "burn": 601,
      "ps": 602,
      "ta": 603,
      "’,": 604,
      "beli": 605,
      "How": 606,
      "gre": 607,
      "line": 608,
      "ze": 609,
      "arm": 610,
      "ken": 611,
      "Do": 612,
      "der": 613,
      "girl": 614,
      "hang": 615,
      "sc": 616,
      "ya": 617,
      "anna": 618,
      "took": 619,
      "stay": 620,
      "left": 621,
      "Your": 622,
      "kill": 623,
      "less": 624,
      "age": 625,
      "break": 626,
      "Go": 627,
      "Mo": 628,
      "Yes": 629,
      "came": 630,
      "hind": 631,
      "remember": 632,
      "seen": 633,
      "nobody": 634,
      "dead": 635,
      "comes": 636,
      "didn": 637,
      "dark": 638,
      "led": 639,
      "room": 640,
      "til": 641,
      ",”": 642,
      "Down": 643,
      "Lord": 644,
      "One": 645,
      "igh": 646,
      "true": 647,
      "Like": 648,
      "Will": 649,
      "ise": 650,
      "late": 651,
      "saw": 652,
      "moon": 653,
      "Come": 654,
      "Tell": 655,
      "ah": 656,
      "dri": 657,
      "per": 658,
      "rain": 659,
      "sit": 660,
      "inn": 661,
      "ash": 662,
      "cle": 663,
      "hap": 664,
      "ten": 665,
      "ven": 666,
      "star": 667,
      "ows": 668,
      "behind": 669,
      "mat": 670,
      "ring": 671,
      "goin": 672,
      "someone": 673,
      "stop": 674,
      "tonight": 675,
      "better": 676,
      "Or": 677,
      "dis": 678,
      "flow": 679,
      "wanna": 680,
      "inside": 681,
      "really": 682,
      "somebody": 683,
      "pro": 684,
      "sleep": 685,
      "alone": 686,
      "yourself": 687,
      "pin": 688,
      "tre": 689,
      "anc": 690,
      "song": 691,
      "yer": 692,
      "show": 693,
      "knows": 694,
      "lookin": 695,
      "hy": 696,
      "ip": 697,
      "money": 698,
      "ru": 699,
      "start": 700,
      "les": 701,
      "while": 702,
      "black": 703,
      "walkin": 704,
      "cause": 705,
      "est": 706,
      "tin": 707,
      "step": 708,
      "leave": 709,
      "child": 710,
      "does": 711,
      "trouble": 712,
      "boy": 713,
      "emp": 714,
      "fire": 715,
      "Say": 716,
      "dy": 717,
      "done": 718,
      "lt": 719,
      "lin": 720,
      "sou": 721,
      "tom": 722,
      "morning": 723,
      "blood": 724,
      "believe": 725,
      "Sh": 726,
      "ba": 727,
      "count": 728,
      "ling": 729,
      "ness": 730,
      "pain": 731,
      "ting": 732,
      "ving": 733,
      "lost": 734,
      "Bl": 735,
      "Ne": 736,
      "vin": 737,
      "thought": 738,
      "ign": 739,
      "sky": 740,
      "Ain": 741,
      "bad": 742,
      "mine": 743,
      "ran": 744,
      "ond": 745,
      "death": 746,
      "bring": 747,
      "cre": 748,
      "eah": 749,
      "fly": 750,
      "kn": 751,
      "heard": 752,
      "ouse": 753,
      "young": 754,
      "stone": 755,
      "feet": 756,
      "please": 757,
      "sweet": 758,
      "His": 759,
      "Play": 760,
      "sure": 761,
      "ted": 762,
      "another": 763,
      "orrow": 764,
      "best": 765,
      "myself": 766,
      "shot": 767,
      "water": 768,
      "wrong": 769,
      "ff": 770,
      "ssed": 771,
      "these": 772,
      "along": 773,
      "Look": 774,
      "Can": 775,
      "Let": 776,
      "ans": 777,
      "nock": 778,
      "comin": 779,
      "pray": 780,
      "crying": 781,
      "big": 782,
      "slow": 783,
      "arn": 784,
      "bell": 785,
      "blue": 786,
      "hands": 787,
      "pret": 788,
      "soul": 789,
      "babe": 790,
      "Me": 791,
      "May": 792,
      "ime": 793,
      "mill": 794,
      "pa": 795,
      "ride": 796,
      "two": 797,
      "ues": 798,
      "rip": 799,
      "river": 800,
      "why": 801,
      "tru": 802,
      "matter": 803,
      "Jo": 804,
      "cl": 805,
      "cur": 806,
      "den": 807,
      "die": 808,
      "hair": 809,
      "knew": 810,
      "que": 811,
      "gold": 812,
      "aven": 813,
      "without": 814,
      "whole": 815,
      "ountain": 816,
      "Baby": 817,
      "Man": 818,
      "Whi": 819,
      "hill": 820,
      "lot": 821,
      "tou": 822,
      "ina": 823,
      "llow": 824,
      "ste": 825,
      "ary": 826,
      "neath": 827,
      "same": 828,
      "ump": 829,
      "aking": 830,
      "broken": 831,
      "At": 832,
      "cke": 833,
      "cut": 834,
      "flo": 835,
      "free": 836,
      "hur": 837,
      "lp": 838,
      "pu": 839,
      "alley": 840,
      "near": 841,
      "cold": 842,
      "ousand": 843,
      "Ple": 844,
      "Take": 845,
      "born": 846,
      "ci": 847,
      "used": 848,
      "andy": 849,
      "als": 850,
      "nothin": 851,
      "upon": 852,
      "looked": 853,
      "aught": 854,
      "ground": 855,
      "ful": 856,
      "Hen": 857,
      "Tr": 858,
      "cross": 859,
      "gun": 860,
      "house": 861,
      "king": 862,
      "ose": 863,
      "sin": 864,
      "sad": 865,
      "wish": 866,
      "ason": 867,
      "should": 868,
      "able": 869,
      "Heart": 870,
      "friends": 871,
      "Got": 872,
      "Re": 873,
      "cat": 874,
      "care": 875,
      "gs": 876,
      "hour": 877,
      "ove": 878,
      "part": 879,
      "tain": 880,
      "wake": 881,
      "xt": 882,
      "hell": 883,
      "lly": 884,
      "thousand": 885,
      "its": 886,
      "ummer": 887,
      "strang": 888,
      "million": 889,
      "Please": 890,
      "Henry": 891,
      "Al": 892,
      "Are": 893,
      "Miss": 894,
      "vo": 895,
      "years": 896,
      "meet": 897,
      "lim": 898,
      "next": 899,
      "train": 900,
      "ister": 901,
      "after": 902,
      "bir": 903,
      "cra": 904,
      "knock": 905,
      "rest": 906,
      "once": 907,
      "white": 908,
      "tion": 909,
      "shall": 910,
      "plain": 911,
      "move": 912,
      "drink": 913,
      "ched": 914,
      "Love": 915,
      "serve": 916,
      "inning": 917,
      ".”": 918,
      "Br": 919,
      "By": 920,
      "Mama": 921,
      "Pe": 922,
      "fell": 923,
      "fight": 924,
      "fill": 925,
      "hor": 926,
      "jo": 927,
      "mon": 928,
      "pri": 929,
      "une": 930,
      "whe": 931,
      "heaven": 932,
      "thes": 933,
      "ren": 934,
      "irst": 935,
      "above": 936,
      "ung": 937,
      "foot": 938,
      "wonder": 939,
      "ggle": 940,
      "changed": 941,
      "Bo": 942,
      "Le": 943,
      "This": 944,
      "ix": 945,
      "jud": 946,
      "min": 947,
      "past": 948,
      "round": 949,
      "twi": 950,
      "help": 951,
      "mean": 952,
      "asy": 953,
      "shad": 954,
      "soon": 955,
      "days": 956,
      "everything": 957,
      "clothes": 958,
      "miles": 959,
      "known": 960,
      "pretty": 961,
      "Honey": 962,
      "bar": 963,
      "fin": 964,
      "gl": 965,
      "ks": 966,
      "mid": 967,
      "mama": 968,
      "ny": 969,
      "ph": 970,
      "pas": 971,
      "tears": 972,
      "zy": 973,
      "hed": 974,
      "ins": 975,
      "inter": 976,
      "stu": 977,
      "ence": 978,
      "cho": 979,
      "deep": 980,
      "blind": 981,
      "most": 982,
      "skin": 983,
      "Everybody": 984,
      "New": 985,
      "Ru": 986,
      "Why": 987,
      "bound": 988,
      "pt": 989,
      "sil": 990,
      "across": 991,
      "wear": 992,
      "cks": 993,
      "seem": 994,
      "follow": 995,
      "wouldn": 996,
      "window": 997,
      "De": 998,
      "High": 999,
      "ale": 1000,
      "four": 1001,
      "gave": 1002,
      "gam": 1003,
      "game": 1004,
      "open": 1005,
      "real": 1006,
      "reason": 1007,
      "met": 1008,
      "told": 1009,
      "stra": 1010,
      "set": 1011,
      "ote": 1012,
      "act": 1013,
      "ship": 1014,
      "blues": 1015,
      "ards": 1016,
      "brain": 1017,
      "West": 1018,
      "fool": 1019,
      "understand": 1020,
      "speak": 1021,
      "dreams": 1022,
      "happen": 1023,
      "country": 1024,
      "floor": 1025,
      "Ang": 1026,
      "Gonna": 1027,
      "Joh": 1028,
      "bot": 1029,
      "fr": 1030,
      "honey": 1031,
      "son": 1032,
      "med": 1033,
      "though": 1034,
      "learn": 1035,
      "sea": 1036,
      "already": 1037,
      "wild": 1038,
      "forget": 1039,
      "illy": 1040,
      "else": 1041,
      "igg": 1042,
      "trying": 1043,
      "guess": 1044,
      "beginning": 1045,
      "law": 1046,
      "lady": 1047,
      "Willie": 1048,
      "cy": 1049,
      "cro": 1050,
      "each": 1051,
      "ian": 1052,
      "ich": 1053,
      "mountain": 1054,
      "sound": 1055,
      "smile": 1056,
      "tri": 1057,
      "ul": 1058,
      "war": 1059,
      "yes": 1060,
      "wiggle": 1061,
      "hope": 1062,
      "words": 1063,
      "looking": 1064,
      "turned": 1065,
      "watch": 1066,
      "killed": 1067,
      "While": 1068,
      "touch": 1069,
      "Angel": 1070,
      "ball": 1071,
      "bout": 1072,
      "ction": 1073,
      "fun": 1074,
      "found": 1075,
      "glad": 1076,
      "io": 1077,
      "ls": 1078,
      "summer": 1079,
      "ane": 1080,
      "ont": 1081,
      "ors": 1082,
      "omen": 1083,
      "shine": 1084,
      "agg": 1085,
      "eyed": 1086,
      "book": 1087,
      "poor": 1088,
      "shoes": 1089,
      "streets": 1090,
      "Black": 1091,
      "bells": 1092,
      "straight": 1093,
      "Ho": 1094,
      "Jack": 1095,
      "Not": 1096,
      "Won": 1097,
      "bus": 1098,
      "crow": 1099,
      "dist": 1100,
      "fle": 1101,
      "gar": 1102,
      "par": 1103,
      "pass": 1104,
      "use": 1105,
      "outh": 1106,
      "llar": 1107,
      "ment": 1108,
      "arrow": 1109,
      "key": 1110,
      "lip": 1111,
      "shin": 1112,
      "amb": 1113,
      "peace": 1114,
      "anything": 1115,
      "wanted": 1116,
      "walked": 1117,
      "standing": 1118,
      "died": 1119,
      "truth": 1120,
      "Get": 1121,
      "Key": 1122,
      "Se": 1123,
      "az": 1124,
      "cour": 1125,
      "city": 1126,
      "easy": 1127,
      "fast": 1128,
      "father": 1129,
      "hot": 1130,
      "kid": 1131,
      "mar": 1132,
      "miss": 1133,
      "pic": 1134,
      "pick": 1135,
      "ris": 1136,
      "sl": 1137,
      "tried": 1138,
      "tune": 1139,
      "res": 1140,
      "ves": 1141,
      "ster": 1142,
      "wee": 1143,
      "shore": 1144,
      "rybody": 1145,
      "somethin": 1146,
      "bye": 1147,
      "mother": 1148,
      "full": 1149,
      "close": 1150,
      "blowin": 1151,
      "Roll": 1152,
      "change": 1153,
      "onesome": 1154,
      "walls": 1155,
      "stars": 1156,
      "!”": 1157,
      "Cause": 1158,
      "Father": 1159,
      "Of": 1160,
      "bit": 1161,
      "hit": 1162,
      "kne": 1163,
      "pie": 1164,
      "rid": 1165,
      "yeah": 1166,
      "oud": 1167,
      "ory": 1168,
      "beat": 1169,
      "lies": 1170,
      "lose": 1171,
      "lover": 1172,
      "which": 1173,
      "cove": 1174,
      "els": 1175,
      "both": 1176,
      "couldn": 1177,
      "cont": 1178,
      "Someone": 1179,
      "coming": 1180,
      "tryin": 1181,
      "avy": 1182,
      "great": 1183,
      "Joey": 1184,
      "Never": 1185,
      "Put": 1186,
      "Time": 1187,
      "Wigg": 1188,
      "awn": 1189,
      "bs": 1190,
      "bor": 1191,
      "bright": 1192,
      "ctor": 1193,
      "dir": 1194,
      "eat": 1195,
      "hung": 1196,
      "nin": 1197,
      "pow": 1198,
      "pay": 1199,
      "rough": 1200,
      "tree": 1201,
      "women": 1202,
      "ons": 1203,
      "ara": 1204,
      "wife": 1205,
      "dollar": 1206,
      "aved": 1207,
      "sail": 1208,
      "pear": 1209,
      "ions": 1210,
      "anymore": 1211,
      "thinkin": 1212,
      "voice": 1213,
      "filled": 1214,
      "Wiggle": 1215,
      "Ch": 1216,
      "Did": 1217,
      "Ev": 1218,
      "Sara": 1219,
      "Un": 1220,
      "Was": 1221,
      "aid": 1222,
      "aut": 1223,
      "ape": 1224,
      "cri": 1225,
      "des": 1226,
      "fine": 1227,
      "iz": 1228,
      "ither": 1229,
      "lau": 1230,
      "sat": 1231,
      "sur": 1232,
      "ank": 1233,
      "reed": 1234,
      "ated": 1235,
      "ates": 1236,
      "sen": 1237,
      "cked": 1238,
      "word": 1239,
      "eye": 1240,
      "early": 1241,
      "walking": 1242,
      "forever": 1243,
      "Nothing": 1244,
      "press": 1245,
      "asked": 1246,
      "arms": 1247,
      "judge": 1248,
      "silver": 1249,
      "John": 1250,
      "Town": 1251,
      "Yeah": 1252,
      "nor": 1253,
      "path": 1254,
      "sand": 1255,
      "sick": 1256,
      "vis": 1257,
      "vill": 1258,
      "top": 1259,
      "ork": 1260,
      "lead": 1261,
      "send": 1262,
      "enough": 1263,
      "rise": 1264,
      "sometimes": 1265,
      "Too": 1266,
      "throw": 1267,
      "ches": 1268,
      "mornin": 1269,
      "highway": 1270,
      "ighbor": 1271,
      "flowers": 1272,
      "children": 1273,
      "Brown": 1274,
      "Angelina": 1275,
      "Bro": 1276,
      "Mr": 1277,
      "Twe": 1278,
      "Up": 1279,
      "aw": 1280,
      "bab": 1281,
      "cap": 1282,
      "dar": 1283,
      "dle": 1284,
      "dawn": 1285,
      "fish": 1286,
      "first": 1287,
      "hide": 1288,
      "lonesome": 1289,
      "main": 1290,
      "ning": 1291,
      "num": 1292,
      "pi": 1293,
      "sm": 1294,
      "wide": 1295,
      "stri": 1296,
      "ater": 1297,
      "ort": 1298,
      "list": 1299,
      "alf": 1300,
      "fear": 1301,
      "blame": 1302,
      "hood": 1303,
      "anybody": 1304,
      "stor": 1305,
      "spir": 1306,
      "called": 1307,
      "breath": 1308,
      "Everything": 1309,
      "brother": 1310,
      "shoot": 1311,
      "queen": 1312,
      "pull": 1313,
      "Alber": 1314,
      "bird": 1315,
      "Am": 1316,
      "Out": 1317,
      "Po": 1318,
      "Winter": 1319,
      "bat": 1320,
      "bow": 1321,
      "band": 1322,
      "dance": 1323,
      "ize": 1324,
      "kiss": 1325,
      "ner": 1326,
      "op": 1327,
      "sup": 1328,
      "hes": 1329,
      "ature": 1330,
      "leve": 1331,
      "sent": 1332,
      "edle": 1333,
      "aces": 1334,
      "weep": 1335,
      "dee": 1336,
      "someday": 1337,
      "trave": 1338,
      "track": 1339,
      "worth": 1340,
      "umble": 1341,
      "Tom": 1342,
      "apart": 1343,
      "ends": 1344,
      "box": 1345,
      "earth": 1346,
      "akin": 1347,
      "carry": 1348,
      "rolling": 1349,
      "ckets": 1350,
      "hurt": 1351,
      "crazy": 1352,
      "Alberta": 1353,
      "Ar": 1354,
      "Bu": 1355,
      "Billy": 1356,
      "Cat": 1357,
      "Fe": 1358,
      "Jim": 1359,
      "Sing": 1360,
      "See": 1361,
      "York": 1362,
      "ali": 1363,
      "cried": 1364,
      "gent": 1365,
      "je": 1366,
      "mouth": 1367,
      "ony": 1368,
      "those": 1369,
      "toge": 1370,
      "beaut": 1371,
      "lie": 1372,
      "living": 1373,
      "ene": 1374,
      "ute": 1375,
      "neighbor": 1376,
      "chance": 1377,
      "outside": 1378,
      "wasn": 1379,
      "goes": 1380,
      "shake": 1381,
      "amp": 1382,
      "loved": 1383,
      "ants": 1384,
      "anyone": 1385,
      "wood": 1386,
      "iled": 1387,
      "thinking": 1388,
      "Nobody": 1389,
      "Only": 1390,
      "against": 1391,
      "mercy": 1392,
      "maybe": 1393,
      "burning": 1394,
      "clear": 1395,
      "doesn": 1396,
      "tomorrow": 1397,
      "horse": 1398,
      "shadows": 1399,
      "Rub": 1400,
      "together": 1401,
      "Jud": 1402,
      "Ooh": 1403,
      "Que": 1404,
      "Sad": 1405,
      "Ten": 1406,
      "bone": 1407,
      "ced": 1408,
      "corn": 1409,
      "danc": 1410,
      "fa": 1411,
      "ha": 1412,
      "ked": 1413,
      "smo": 1414,
      "spo": 1415,
      "vil": 1416,
      "int": 1417,
      "ream": 1418,
      "three": 1419,
      "today": 1420,
      "being": 1421,
      "nder": 1422,
      "whis": 1423,
      "cannot": 1424,
      "chain": 1425,
      "dog": 1426,
      "felt": 1427,
      "ared": 1428,
      "gotta": 1429,
      "blin": 1430,
      "cover": 1431,
      "gets": 1432,
      "looks": 1433,
      "rail": 1434,
      "Sometimes": 1435,
      "build": 1436,
      "Soon": 1437,
      "litic": 1438,
      "strong": 1439,
      "Before": 1440,
      "began": 1441,
      "lands": 1442,
      "talkin": 1443,
      "lues": 1444,
      "luck": 1445,
      "ashing": 1446,
      "empty": 1447,
      "Maybe": 1448,
      "midnight": 1449,
      "crossed": 1450,
      "ville": 1451,
      "Tweedle": 1452,
      "Queen": 1453,
      "Blues": 1454,
      "Dri": 1455,
      "Fran": 1456,
      "Her": 1457,
      "Try": 1458,
      "cast": 1459,
      "fate": 1460,
      "gy": 1461,
      "ied": 1462,
      "ious": 1463,
      "mur": 1464,
      "making": 1465,
      "pound": 1466,
      "sang": 1467,
      "sign": 1468,
      "tong": 1469,
      "yet": 1470,
      "rew": 1471,
      "sell": 1472,
      "sees": 1473,
      "seven": 1474,
      "bend": 1475,
      "ison": 1476,
      "chur": 1477,
      "ween": 1478,
      "doctor": 1479,
      "among": 1480,
      "dec": 1481,
      "oker": 1482,
      "ield": 1483,
      "wants": 1484,
      "grave": 1485,
      "everywhere": 1486,
      "others": 1487,
      "dressed": 1488,
      "buy": 1489,
      "prote": 1490,
      "falling": 1491,
      "blows": 1492,
      "avin": 1493,
      "names": 1494,
      "burned": 1495,
      "Good": 1496,
      "Most": 1497,
      "drift": 1498,
      "clean": 1499,
      "since": 1500,
      "hello": 1501,
      "Missus": 1502,
      "wheel": 1503,
      "front": 1504,
      "listen": 1505,
      "storm": 1506,
      "Frank": 1507,
      "Co": 1508,
      "Even": 1509,
      "Lee": 1510,
      "Magg": 1511,
      "Under": 1512,
      "cir": 1513,
      "case": 1514,
      "du": 1515,
      "dust": 1516,
      "ered": 1517,
      "fing": 1518,
      "fair": 1519,
      "jail": 1520,
      "mist": 1521,
      "pers": 1522,
      "race": 1523,
      "sw": 1524,
      "swi": 1525,
      "sink": 1526,
      "six": 1527,
      "ture": 1528,
      "valley": 1529,
      "heavy": 1530,
      "ouds": 1531,
      "anim": 1532,
      "tory": 1533,
      "kend": 1534,
      "rop": 1535,
      "loc": 1536,
      "alt": 1537,
      "alse": 1538,
      "doin": 1539,
      "dogs": 1540,
      "iron": 1541,
      "few": 1542,
      "devil": 1543,
      "sold": 1544,
      "coat": 1545,
      "aster": 1546,
      "ums": 1547,
      "politic": 1548,
      "goodbye": 1549,
      "Something": 1550,
      "bully": 1551,
      "quick": 1552,
      "dise": 1553,
      "stru": 1554,
      "wenty": 1555,
      "keeps": 1556,
      "Because": 1557,
      "aving": 1558,
      "flat": 1559,
      "psy": 1560,
      "hangin": 1561,
      "ances": 1562,
      "steps": 1563,
      "boys": 1564,
      "paid": 1565,
      "cket": 1566,
      "aughter": 1567,
      "crowd": 1568,
      "distance": 1569,
      "knees": 1570,
      "laugh": 1571,
      "spirit": 1572,
      "levee": 1573,
      "Maggie": 1574,
      "Bet": 1575,
      "Could": 1576,
      "Dandy": 1577,
      "List": 1578,
      "Mar": 1579,
      "Mister": 1580,
      "Red": 1581,
      "Sp": 1582,
      "Til": 1583,
      "alive": 1584,
      "bur": 1585,
      "cup": 1586,
      "gal": 1587,
      "glow": 1588,
      "gate": 1589,
      "harm": 1590,
      "half": 1591,
      "narrow": 1592,
      "prom": 1593,
      "rs": 1594,
      "sville": 1595,
      "win": 1596,
      "year": 1597,
      "ñor": 1598,
      "iness": 1599,
      "remain": 1600,
      "stage": 1601,
      "ley": 1602,
      "sear": 1603,
      "ket": 1604,
      "ident": 1605,
      "rie": 1606,
      "forgot": 1607,
      "tired": 1608,
      "unk": 1609,
      "unto": 1610,
      "arewell": 1611,
      "dest": 1612,
      "Hey": 1613,
      "trail": 1614,
      "alkin": 1615,
      "getting": 1616,
      "appear": 1617,
      "boat": 1618,
      "boot": 1619,
      "amed": 1620,
      "posed": 1621,
      "grace": 1622,
      "cond": 1623,
      "conce": 1624,
      "Somebody": 1625,
      "quit": 1626,
      "lives": 1627,
      "Stre": 1628,
      "flower": 1629,
      "treat": 1630,
      "started": 1631,
      "troubles": 1632,
      "Shine": 1633,
      "Hearts": 1634,
      "hours": 1635,
      "stranger": 1636,
      "limb": 1637,
      "People": 1638,
      "seems": 1639,
      "weekend": 1640,
      "power": 1641,
      "reedom": 1642,
      "Brownsville": 1643,
      "battle": 1644,
      "gentle": 1645,
      "disease": 1646,
      "Listen": 1647,
      "Bey": 1648,
      "Blow": 1649,
      "Has": 1650,
      "Have": 1651,
      "Handy": 1652,
      "Ring": 1653,
      "Rid": 1654,
      "Su": 1655,
      "Wor": 1656,
      "ago": 1657,
      "ding": 1658,
      "dif": 1659,
      "fro": 1660,
      "false": 1661,
      "hall": 1662,
      "hid": 1663,
      "ia": 1664,
      "ire": 1665,
      "iam": 1666,
      "ju": 1667,
      "oce": 1668,
      "rag": 1669,
      "sof": 1670,
      "tear": 1671,
      "wer": 1672,
      "heat": 1673,
      "mes": 1674,
      "stick": 1675,
      "orry": 1676,
      "itar": 1677,
      "lift": 1678,
      "ady": 1679,
      "rist": 1680,
      "ries": 1681,
      "whist": 1682,
      "ford": 1683,
      "usts": 1684,
      "tie": 1685,
      "inde": 1686,
      "feed": 1687,
      "dear": 1688,
      "deal": 1689,
      "bling": 1690,
      "trust": 1691,
      "worry": 1692,
      "apped": 1693,
      "nty": 1694,
      "Into": 1695,
      "walks": 1696,
      "raise": 1697,
      "makes": 1698,
      "conf": 1699,
      "dress": 1700,
      "bull": 1701,
      "pride": 1702,
      "lived": 1703,
      "Stand": 1704,
      "Stay": 1705,
      "Though": 1706,
      "Through": 1707,
      "streng": 1708,
      "farm": 1709,
      "suit": 1710,
      "waitin": 1711,
      "torn": 1712,
      "trees": 1713,
      "thoughts": 1714,
      "clouds": 1715,
      "price": 1716,
      "Broken": 1717,
      "Feel": 1718,
      "corner": 1719,
      "protect": 1720,
      "locusts": 1721,
      "search": 1722,
      "Street": 1723,
      "Beyond": 1724,
      "Ah": 1725,
      "Bring": 1726,
      "Day": 1727,
      "Des": 1728,
      "Joker": 1729,
      "Qu": 1730,
      "Two": 1731,
      "Ya": 1732,
      "bread": 1733,
      "cent": 1734,
      "dam": 1735,
      "dra": 1736,
      "field": 1737,
      "hu": 1738,
      "ma": 1739,
      "mis": 1740,
      "mad": 1741,
      "mag": 1742,
      "ned": 1743,
      "py": 1744,
      "plo": 1745,
      "snow": 1746,
      "table": 1747,
      "yell": 1748,
      "ved": 1749,
      "orr": 1750,
      "bey": 1751,
      "because": 1752,
      "rol": 1753,
      "rican": 1754,
      "eter": 1755,
      "deser": 1756,
      "ceive": 1757,
      "cept": 1758,
      "ept": 1759,
      "anyway": 1760,
      "grow": 1761,
      "standin": 1762,
      "everybody": 1763,
      "story": 1764,
      "Someday": 1765,
      "given": 1766,
      "winds": 1767,
      "playing": 1768,
      "evening": 1769,
      "such": 1770,
      "carlet": 1771,
      "cru": 1772,
      "talking": 1773,
      "between": 1774,
      "lude": 1775,
      "laid": 1776,
      "drive": 1777,
      "ester": 1778,
      "ignity": 1779,
      "finally": 1780,
      "stuck": 1781,
      "bottle": 1782,
      "bottom": 1783,
      "picture": 1784,
      "babies": 1785,
      "Winterlude": 1786,
      "Catfish": 1787,
      "faith": 1788,
      "smoke": 1789,
      "church": 1790,
      "Frankie": 1791,
      "ocean": 1792,
      "soft": 1793,
      "Jokerman": 1794,
      "',": 1795,
      "About": 1796,
      "Com": 1797,
      "Cept": 1798,
      "Jes": 1799,
      "Lou": 1800,
      "Lit": 1801,
      "Wo": 1802,
      "fut": 1803,
      "five": 1804,
      "hund": 1805,
      "iver": 1806,
      "ily": 1807,
      "ible": 1808,
      "lone": 1809,
      "mit": 1810,
      "nce": 1811,
      "nic": 1812,
      "ping": 1813,
      "sli": 1814,
      "slip": 1815,
      "twenty": 1816,
      "vie": 1817,
      "thie": 1818,
      "strip": 1819,
      "second": 1820,
      "offe": 1821,
      "addy": 1822,
      "acher": 1823,
      "form": 1824,
      "chair": 1825,
      "nowhere": 1826,
      "tight": 1827,
      "until": 1828,
      "within": 1829,
      "pect": 1830,
      "raid": 1831,
      "grand": 1832,
      "takes": 1833,
      "comp": 1834,
      "turning": 1835,
      "airs": 1836,
      "Wherever": 1837,
      "memory": 1838,
      "closer": 1839,
      "speci": 1840,
      "runnin": 1841,
      "ggy": 1842,
      "evil": 1843,
      "rules": 1844,
      "leaves": 1845,
      "Trouble": 1846,
      "strange": 1847,
      "craw": 1848,
      "twist": 1849,
      "twice": 1850,
      "gamble": 1851,
      "business": 1852,
      "dirt": 1853,
      "hungry": 1854,
      "satis": 1855,
      "sense": 1856,
      "number": 1857,
      "supposed": 1858,
      "Tomorrow": 1859,
      "neighborhood": 1860,
      "Drift": 1861,
      "hundred": 1862,
      "Ame": 1863,
      "Bir": 1864,
      "Big": 1865,
      "Du": 1866,
      "Ever": 1867,
      "East": 1868,
      "Fo": 1869,
      "Gu": 1870,
      "Had": 1871,
      "Him": 1872,
      "Jane": 1873,
      "King": 1874,
      "Memp": 1875,
      "Said": 1876,
      "Scarlet": 1877,
      "Way": 1878,
      "ces": 1879,
      "dignity": 1880,
      "ek": 1881,
      "fat": 1882,
      "fac": 1883,
      "freedom": 1884,
      "jump": 1885,
      "lter": 1886,
      "none": 1887,
      "rat": 1888,
      "ray": 1889,
      "sy": 1890,
      "sme": 1891,
      "sight": 1892,
      "sorrow": 1893,
      "sister": 1894,
      "vic": 1895,
      "wast": 1896,
      "xford": 1897,
      "ye": 1898,
      "het": 1899,
      "rent": 1900,
      "behold": 1901,
      "adise": 1902,
      "rode": 1903,
      "lovin": 1904,
      "yours": 1905,
      "forgive": 1906,
      "char": 1907,
      "nose": 1908,
      "tied": 1909,
      "arden": 1910,
      "ilk": 1911,
      "anger": 1912,
      "angel": 1913,
      "plenty": 1914,
      "brand": 1915,
      "grab": 1916,
      "hearts": 1917,
      "Without": 1918,
      "stole": 1919,
      "mud": 1920,
      "quite": 1921,
      "brea": 1922,
      "explo": 1923,
      "blowing": 1924,
      "fied": 1925,
      "tered": 1926,
      "ations": 1927,
      "thank": 1928,
      "spend": 1929,
      "writ": 1930,
      "broke": 1931,
      "block": 1932,
      "Rock": 1933,
      "waiting": 1934,
      "waited": 1935,
      "afraid": 1936,
      "rollin": 1937,
      "burnin": 1938,
      "believ": 1939,
      "Goin": 1940,
      "Moore": 1941,
      "darkness": 1942,
      "happy": 1943,
      "piness": 1944,
      "Lookin": 1945,
      "prayer": 1946,
      "slowly": 1947,
      "Meet": 1948,
      "Trust": 1949,
      "catch": 1950,
      "Boy": 1951,
      "shadow": 1952,
      "stuff": 1953,
      "gamblin": 1954,
      "shining": 1955,
      "Seen": 1956,
      "course": 1957,
      "izon": 1958,
      "Judas": 1959,
      "circ": 1960,
      "soldi": 1961,
      "Rider": 1962,
      "diffe": 1963,
      "whistle": 1964,
      "Jesus": 1965,
      "Little": 1966,
      "future": 1967,
      "Driftin": 1968,
      "Memphis": 1969,
      "smell": 1970,
      "Ano": 1971,
      "Night": 1972,
      "Old": 1973,
      "Open": 1974,
      "Pre": 1975,
      "Row": 1976,
      "Sat": 1977,
      "Turn": 1978,
      "Ye": 1979,
      "bree": 1980,
      "bark": 1981,
      "bones": 1982,
      "cow": 1983,
      "clu": 1984,
      "cards": 1985,
      "drop": 1986,
      "gut": 1987,
      "god": 1988,
      "gain": 1989,
      "garden": 1990,
      "hound": 1991,
      "hum": 1992,
      "ised": 1993,
      "kin": 1994,
      "later": 1995,
      "milk": 1996,
      "nice": 1997,
      "ost": 1998,
      "pill": 1999,
      "phi": 2000,
      "sile": 2001,
      "sim": 2002,
      "tend": 2003,
      "vio": 2004,
      "wand": 2005,
      "wine": 2006,
      "iny": 2007,
      "reach": 2008,
      "meant": 2009,
      "lean": 2010,
      "secre": 2011,
      "itic": 2012,
      "beside": 2013,
      "ghost": 2014,
      "asleep": 2015,
      "roy": 2016,
      "rock": 2017,
      "esne": 2018,
      "load": 2019,
      "wise": 2020,
      "neck": 2021,
      "ets": 2022,
      "ety": 2023,
      "wel": 2024,
      "till": 2025,
      "dom": 2026,
      "unknown": 2027,
      "col": 2028,
      "tray": 2029,
      "idea": 2030,
      "shelter": 2031,
      "hole": 2032,
      "worse": 2033,
      "gettin": 2034,
      "pled": 2035,
      "iful": 2036,
      "ames": 2037,
      "Inside": 2038,
      "pockets": 2039,
      "icon": 2040,
      "bleed": 2041,
      "ourine": 2042,
      "lights": 2043,
      "feelin": 2044,
      "feeling": 2045,
      "stood": 2046,
      "Nothin": 2047,
      "roads": 2048,
      "quesne": 2049,
      "diam": 2050,
      "drown": 2051,
      "Three": 2052,
      "explain": 2053,
      "stream": 2054,
      "Life": 2055,
      "watched": 2056,
      "suck": 2057,
      "guitar": 2058,
      "teen": 2059,
      "Any": 2060,
      "running": 2061,
      "Road": 2062,
      "named": 2063,
      "hanging": 2064,
      "breaking": 2065,
      "moonlight": 2066,
      "rainin": 2067,
      "happiness": 2068,
      "disappear": 2069,
      "Saying": 2070,
      "tomb": 2071,
      "Shake": 2072,
      "ffer": 2073,
      "Which": 2074,
      "touched": 2075,
      "knockin": 2076,
      "horizon": 2077,
      "footsteps": 2078,
      "ambourine": 2079,
      "control": 2080,
      "dirty": 2081,
      "Christ": 2082,
      "umbled": 2083,
      "Arab": 2084,
      "Rubicon": 2085,
      "animals": 2086,
      "political": 2087,
      "conceit": 2088,
      "Blowin": 2089,
      "indeed": 2090,
      "beyond": 2091,
      "Duquesne": 2092,
      "Another": 2093,
      "Car": 2094,
      "Came": 2095,
      "Corr": 2096,
      "Dum": 2097,
      "Dee": 2098,
      "Eden": 2099,
      "Home": 2100,
      "Hell": 2101,
      "Ke": 2102,
      "Mary": 2103,
      "Oxford": 2104,
      "Pat": 2105,
      "Tambourine": 2106,
      "Wait": 2107,
      "bri": 2108,
      "bare": 2109,
      "bile": 2110,
      "cer": 2111,
      "cab": 2112,
      "cape": 2113,
      "fter": 2114,
      "gree": 2115,
      "har": 2116,
      "kick": 2117,
      "mome": 2118,
      "mir": 2119,
      "ob": 2120,
      "pal": 2121,
      "pur": 2122,
      "pack": 2123,
      "pure": 2124,
      "rhy": 2125,
      "sac": 2126,
      "sal": 2127,
      "sorry": 2128,
      "taking": 2129,
      "uff": 2130,
      "vain": 2131,
      "wound": 2132,
      "wink": 2133,
      "warm": 2134,
      "refle": 2135,
      "lling": 2136,
      "threw": 2137,
      "atch": 2138,
      "señor": 2139,
      "ita": 2140,
      "beneath": 2141,
      "rob": 2142,
      "rose": 2143,
      "almost": 2144,
      "onest": 2145,
      "neither": 2146,
      "chime": 2147,
      "weather": 2148,
      "ticket": 2149,
      "shout": 2150,
      "shame": 2151,
      "doing": 2152,
      "aves": 2153,
      "avey": 2154,
      "rything": 2155,
      "degree": 2156,
      "Heard": 2157,
      "arter": 2158,
      "hate": 2159,
      "plan": 2160,
      "sayin": 2161,
      "angels": 2162,
      "ters": 2163,
      "himself": 2164,
      "anywhere": 2165,
      "brown": 2166,
      "grass": 2167,
      "fold": 2168,
      "complain": 2169,
      "heads": 2170,
      "spark": 2171,
      "news": 2172,
      "skies": 2173,
      "prin": 2174,
      "doorway": 2175,
      "callin": 2176,
      "fully": 2177,
      "Throw": 2178,
      "clock": 2179,
      "fallin": 2180,
      "expect": 2181,
      "order": 2182,
      "sugar": 2183,
      "suffer": 2184,
      "cars": 2185,
      "critic": 2186,
      "mighty": 2187,
      "girls": 2188,
      "scream": 2189,
      "sleeping": 2190,
      "stepped": 2191,
      "Sayin": 2192,
      "lines": 2193,
      "paint": 2194,
      "Blue": 2195,
      "pawn": 2196,
      "golden": 2197,
      "job": 2198,
      "joy": 2199,
      "judg": 2200,
      "minute": 2201,
      "middle": 2202,
      "passed": 2203,
      "passes": 2204,
      "happened": 2205,
      "learned": 2206,
      "mountains": 2207,
      "funny": 2208,
      "flesh": 2209,
      "picked": 2210,
      "risin": 2211,
      "piece": 2212,
      "riding": 2213,
      "crime": 2214,
      "strife": 2215,
      "beautiful": 2216,
      "Sadie": 2217,
      "dancing": 2218,
      "gypsy": 2219,
      "murder": 2220,
      "tongue": 2221,
      "person": 2222,
      "altar": 2223,
      "boots": 2224,
      "World": 2225,
      "esterday": 2226,
      "special": 2227,
      "breathe": 2228,
      "Corrina": 2229,
      "Keep": 2230,
      "moment": 2231,
      "Ad": 2232,
      "Bay": 2233,
      "Dark": 2234,
      "Davey": 2235,
      "First": 2236,
      "Farewell": 2237,
      "Give": 2238,
      "Gold": 2239,
      "Girl": 2240,
      "Kings": 2241,
      "Knock": 2242,
      "Mu": 2243,
      "Make": 2244,
      "Mother": 2245,
      "Mont": 2246,
      "Right": 2247,
      "Str": 2248,
      "Saved": 2249,
      "Talkin": 2250,
      "ased": 2251,
      "bt": 2252,
      "bust": 2253,
      "bash": 2254,
      "ca": 2255,
      "caught": 2256,
      "climb": 2257,
      "din": 2258,
      "dry": 2259,
      "double": 2260,
      "daughter": 2261,
      "east": 2262,
      "fam": 2263,
      "fail": 2264,
      "fact": 2265,
      "gher": 2266,
      "iet": 2267,
      "ife": 2268,
      "ient": 2269,
      "ience": 2270,
      "ky": 2271,
      "lord": 2272,
      "lves": 2273,
      "loud": 2274,
      "mor": 2275,
      "mas": 2276,
      "mus": 2277,
      "makin": 2278,
      "nature": 2279,
      "ooh": 2280,
      "pat": 2281,
      "pair": 2282,
      "pity": 2283,
      "rin": 2284,
      "rad": 2285,
      "rang": 2286,
      "rum": 2287,
      "tail": 2288,
      "wis": 2289,
      "wus": 2290,
      "theart": 2291,
      "ango": 2292,
      "oned": 2293,
      "thir": 2294,
      "stairs": 2295,
      "owed": 2296,
      "seat": 2297,
      "edge": 2298,
      "erness": 2299,
      "kept": 2300,
      "roam": 2301,
      "myster": 2302,
      "idge": 2303,
      "ached": 2304,
      "wire": 2305,
      "forty": 2306,
      "outa": 2307,
      "weary": 2308,
      "irt": 2309,
      "dered": 2310,
      "Here": 2311,
      "blan": 2312,
      "cool": 2313,
      "seemed": 2314,
      "hop": 2315,
      "hobo": 2316,
      "angled": 2317,
      "bother": 2318,
      "nights": 2319,
      "poin": 2320,
      "point": 2321,
      "poison": 2322,
      "ices": 2323,
      "woke": 2324,
      "brought": 2325,
      "telling": 2326,
      "undown": 2327,
      "taken": 2328,
      "spied": 2329,
      "imm": 2330,
      "windows": 2331,
      "bury": 2332,
      "buried": 2333,
      "playin": 2334,
      "played": 2335,
      "Whatever": 2336,
      "calls": 2337,
      "dime": 2338,
      "memor": 2339,
      "fuse": 2340,
      "Once": 2341,
      "Think": 2342,
      "olation": 2343,
      "exact": 2344,
      "Lily": 2345,
      "waters": 2346,
      "Whose": 2347,
      "singin": 2348,
      "begin": 2349,
      "swear": 2350,
      "udes": 2351,
      "write": 2352,
      "crown": 2353,
      "crack": 2354,
      "Roman": 2355,
      "flashing": 2356,
      "tale": 2357,
      "scene": 2358,
      "killer": 2359,
      "Mobile": 2360,
      "sittin": 2361,
      "trem": 2362,
      "dying": 2363,
      "answer": 2364,
      "pretend": 2365,
      "souls": 2366,
      "truck": 2367,
      "steal": 2368,
      "cious": 2369,
      "guns": 2370,
      "Remember": 2371,
      "Peggy": 2372,
      "month": 2373,
      "glass": 2374,
      "phone": 2375,
      "wearing": 2376,
      "paradise": 2377,
      "pressing": 2378,
      "Poor": 2379,
      "Jimmy": 2380,
      "beauty": 2381,
      "Underneath": 2382,
      "rief": 2383,
      "forgotten": 2384,
      "destroy": 2385,
      "Desolation": 2386,
      "desert": 2387,
      "thief": 2388,
      "offee": 2389,
      "satisfied": 2390,
      "different": 2391,
      "Satan": 2392,
      "breeze": 2393,
      "mirr": 2394,
      "exactly": 2395,
      "Gre": 2396,
      "Gates": 2397,
      "Idi": 2398,
      "Jones": 2399,
      "Lay": 2400,
      "Long": 2401,
      "Last": 2402,
      "Lady": 2403,
      "Ma": 2404,
      "More": 2405,
      "Pri": 2406,
      "Rain": 2407,
      "San": 2408,
      "Sil": 2409,
      "Ton": 2410,
      "Wing": 2411,
      "War": 2412,
      "Walk": 2413,
      "Went": 2414,
      "Watch": 2415,
      "Yer": 2416,
      "ahead": 2417,
      "awhile": 2418,
      "chen": 2419,
      "cher": 2420,
      "coffee": 2421,
      "dou": 2422,
      "dare": 2423,
      "etheart": 2424,
      "fy": 2425,
      "fit": 2426,
      "fif": 2427,
      "ga": 2428,
      "ging": 2429,
      "ger": 2430,
      "gli": 2431,
      "gaz": 2432,
      "gates": 2433,
      "hon": 2434,
      "hun": 2435,
      "horn": 2436,
      "honest": 2437,
      "iv": 2438,
      "ips": 2439,
      "kis": 2440,
      "kings": 2441,
      "lamb": 2442,
      "mi": 2443,
      "mand": 2444,
      "nat": 2445,
      "pig": 2446,
      "pony": 2447,
      "save": 2448,
      "sna": 2449,
      "spl": 2450,
      "squ": 2451,
      "scho": 2452,
      "saved": 2453,
      "tem": 2454,
      "ull": 2455,
      "vive": 2456,
      "vation": 2457,
      "wing": 2458,
      "wag": 2459,
      "ward": 2460,
      "warn": 2461,
      "yard": 2462,
      "heal": 2463,
      "inno": 2464,
      "rel": 2465,
      "remind": 2466,
      "melo": 2467,
      "thunder": 2468,
      "sty": 2469,
      "ating": 2470,
      "attered": 2471,
      "org": 2472,
      "arise": 2473,
      "lene": 2474,
      "itchen": 2475,
      "isn": 2476,
      "asses": 2477,
      "lic": 2478,
      "lips": 2479,
      "adv": 2480,
      "ading": 2481,
      "ida": 2482,
      "aly": 2483,
      "rich": 2484,
      "whore": 2485,
      "aint": 2486,
      "shut": 2487,
      "naked": 2488,
      "lyn": 2489,
      "defe": 2490,
      "deck": 2491,
      "deceive": 2492,
      "someplace": 2493,
      "Heavy": 2494,
      "higher": 2495,
      "blade": 2496,
      "coll": 2497,
      "cops": 2498,
      "whatever": 2499,
      "apple": 2500,
      "board": 2501,
      "boss": 2502,
      "pos": 2503,
      "post": 2504,
      "usband": 2505,
      "bride": 2506,
      "blew": 2507,
      "longer": 2508,
      "aths": 2509,
      "consc": 2510,
      "everyone": 2511,
      "comple": 2512,
      "reek": 2513,
      "turns": 2514,
      "turnin": 2515,
      "doors": 2516,
      "Star": 2517,
      "drag": 2518,
      "Thunder": 2519,
      "guard": 2520,
      "begun": 2521,
      "sweetheart": 2522,
      "spect": 2523,
      "Rose": 2524,
      "flash": 2525,
      "green": 2526,
      "Move": 2527,
      "match": 2528,
      "prop": 2529,
      "Says": 2530,
      "ltit": 2531,
      "flyin": 2532,
      "knife": 2533,
      "Jolene": 2534,
      "hills": 2535,
      "steel": 2536,
      "nearly": 2537,
      "True": 2538,
      "moved": 2539,
      "fighting": 2540,
      "passing": 2541,
      "Highway": 2542,
      "Highlands": 2543,
      "brains": 2544,
      "speaks": 2545,
      "happening": 2546,
      "laws": 2547,
      "summertime": 2548,
      "books": 2549,
      "picnic": 2550,
      "covered": 2551,
      "survive": 2552,
      "visions": 2553,
      "darlin": 2554,
      "shooting": 2555,
      "queens": 2556,
      "pulled": 2557,
      "enemy": 2558,
      "haun": 2559,
      "rails": 2560,
      "fingers": 2561,
      "swim": 2562,
      "sinking": 2563,
      "Marie": 2564,
      "yearnin": 2565,
      "confess": 2566,
      "strengthen": 2567,
      "suitcase": 2568,
      "human": 2569,
      "crawl": 2570,
      "victory": 2571,
      "soldier": 2572,
      "club": 2573,
      "suckling": 2574,
      "chimes": 2575,
      "Idiot": 2576,
      "After": 2577,
      "Bout": 2578,
      "Con": 2579,
      "Call": 2580,
      "City": 2581,
      "Dream": 2582,
      "Diam": 2583,
      "Daddy": 2584,
      "Each": 2585,
      "Far": 2586,
      "Fall": 2587,
      "Hold": 2588,
      "James": 2589,
      "Mc": 2590,
      "Must": 2591,
      "Mountain": 2592,
      "Pres": 2593,
      "Paths": 2594,
      "Sure": 2595,
      "Seven": 2596,
      "South": 2597,
      "Tangled": 2598,
      "Yet": 2599,
      "ator": 2600,
      "bid": 2601,
      "bal": 2602,
      "cou": 2603,
      "cig": 2604,
      "cess": 2605,
      "eth": 2606,
      "eight": 2607,
      "either": 2608,
      "fur": 2609,
      "fig": 2610,
      "fist": 2611,
      "faces": 2612,
      "gin": 2613,
      "gome": 2614,
      "gif": 2615,
      "husband": 2616,
      "ises": 2617,
      "jum": 2618,
      "kitchen": 2619,
      "mach": 2620,
      "mary": 2621,
      "maid": 2622,
      "master": 2623,
      "nity": 2624,
      "pet": 2625,
      "ron": 2626,
      "rap": 2627,
      "sle": 2628,
      "sword": 2629,
      "sundown": 2630,
      "trip": 2631,
      "ured": 2632,
      "vous": 2633,
      "wed": 2634,
      "zed": 2635,
      "heed": 2636,
      "anish": 2637,
      "recall": 2638,
      "reali": 2639,
      "respect": 2640,
      "mead": 2641,
      "means": 2642,
      "thick": 2643,
      "vest": 2644,
      "leavin": 2645,
      "leaving": 2646,
      "ited": 2647,
      "belong": 2648,
      "betray": 2649,
      "ery": 2650,
      "otion": 2651,
      "allow": 2652,
      "ides": 2653,
      "acc": 2654,
      "loy": 2655,
      "chill": 2656,
      "noon": 2657,
      "west": 2658,
      "weight": 2659,
      "shar": 2660,
      "short": 2661,
      "union": 2662,
      "unkind": 2663,
      "nail": 2664,
      "deed": 2665,
      "oked": 2666,
      "somewhere": 2667,
      "pend": 2668,
      "blaz": 2669,
      "cook": 2670,
      "seeing": 2671,
      "places": 2672,
      "shelf": 2673,
      "saying": 2674,
      "umb": 2675,
      "Took": 2676,
      "Tolling": 2677,
      "bom": 2678,
      "ify": 2679,
      "whose": 2680,
      "wherever": 2681,
      "brings": 2682,
      "bridge": 2683,
      "aul": 2684,
      "feels": 2685,
      "feelings": 2686,
      "fol": 2687,
      "dreamed": 2688,
      "needs": 2689,
      "space": 2690,
      "spent": 2691,
      "imme": 2692,
      "gives": 2693,
      "multit": 2694,
      "quarter": 2695,
      "quiet": 2696,
      "Forget": 2697,
      "proud": 2698,
      "prison": 2699,
      "calling": 2700,
      "hardly": 2701,
      "underneath": 2702,
      "cheek": 2703,
      "Things": 2704,
      "ols": 2705,
      "exist": 2706,
      "holding": 2707,
      "runs": 2708,
      "workin": 2709,
      "gged": 2710,
      "kinds": 2711,
      "ladies": 2712,
      "flag": 2713,
      "greed": 2714,
      "William": 2715,
      "drivin": 2716,
      "situ": 2717,
      "sitting": 2718,
      "innin": 2719,
      "disgrace": 2720,
      "prove": 2721,
      "proper": 2722,
      "ancy": 2723,
      "showed": 2724,
      "starts": 2725,
      "tiness": 2726,
      "dyin": 2727,
      "Blind": 2728,
      "prayers": 2729,
      "curtain": 2730,
      "push": 2731,
      "kingdom": 2732,
      "Reed": 2733,
      "voices": 2734,
      "insane": 2735,
      "followed": 2736,
      "Dead": 2737,
      "wilderness": 2738,
      "busy": 2739,
      "married": 2740,
      "rising": 2741,
      "lovers": 2742,
      "pearls": 2743,
      "north": 2744,
      "captain": 2745,
      "darling": 2746,
      "pier": 2747,
      "small": 2748,
      "opard": 2749,
      "Rubin": 2750,
      "spoke": 2751,
      "whisper": 2752,
      "chains": 2753,
      "tongues": 2754,
      "Goodbye": 2755,
      "finger": 2756,
      "Better": 2757,
      "Spanish": 2758,
      "burst": 2759,
      "battles": 2760,
      "sticks": 2761,
      "Standing": 2762,
      "Quinn": 2763,
      "damn": 2764,
      "cruel": 2765,
      "lonely": 2766,
      "view": 2767,
      "American": 2768,
      "Bird": 2769,
      "believable": 2770,
      "diamond": 2771,
      "certain": 2772,
      "palm": 2773,
      "salvation": 2774,
      "Montgome": 2775,
      "music": 2776,
      "blanket": 2777,
      "memories": 2778,
      "Priest": 2779,
      "Tonight": 2780,
      "doubt": 2781,
      "kissed": 2782,
      "natur": 2783,
      "wagon": 2784,
      "melody": 2785,
      "prophet": 2786,
      "Diamond": 2787,
      "Montgomery": 2788,
      "Ap": 2789,
      "Bell": 2790,
      "Cry": 2791,
      "Chi": 2792,
      "Cap": 2793,
      "Count": 2794,
      "Dr": 2795,
      "Ex": 2796,
      "Eng": 2797,
      "Five": 2798,
      "Gr": 2799,
      "Hang": 2800,
      "Lu": 2801,
      "Low": 2802,
      "Light": 2803,
      "Late": 2804,
      "Mer": 2805,
      "Mad": 2806,
      "Made": 2807,
      "Mex": 2808,
      "Over": 2809,
      "Our": 2810,
      "Pas": 2811,
      "Pap": 2812,
      "Swe": 2813,
      "Six": 2814,
      "Saw": 2815,
      "Tod": 2816,
      "Twas": 2817,
      "Tiny": 2818,
      "Trails": 2819,
      "Vale": 2820,
      "Would": 2821,
      "Walkin": 2822,
      "aled": 2823,
      "ban": 2824,
      "bill": 2825,
      "bag": 2826,
      "base": 2827,
      "bank": 2828,
      "border": 2829,
      "cot": 2830,
      "cure": 2831,
      "cage": 2832,
      "dim": 2833,
      "danger": 2834,
      "fet": 2835,
      "ffe": 2836,
      "fade": 2837,
      "fought": 2838,
      "flu": 2839,
      "fence": 2840,
      "farewell": 2841,
      "gi": 2842,
      "gas": 2843,
      "gum": 2844,
      "ham": 2845,
      "ili": 2846,
      "iot": 2847,
      "ibr": 2848,
      "ique": 2849,
      "lor": 2850,
      "oth": 2851,
      "pour": 2852,
      "pants": 2853,
      "rot": 2854,
      "rant": 2855,
      "swall": 2856,
      "tur": 2857,
      "taught": 2858,
      "twel": 2859,
      "ug": 2860,
      "vac": 2861,
      "ware": 2862,
      "winter": 2863,
      "wards": 2864,
      "’?": 2865,
      "hel": 2866,
      "oul": 2867,
      "rec": 2868,
      "ress": 2869,
      "ona": 2870,
      "tol": 2871,
      "toes": 2872,
      "vent": 2873,
      "stare": 2874,
      "stic": 2875,
      "stud": 2876,
      "stumble": 2877,
      "inger": 2878,
      "ingale": 2879,
      "lem": 2880,
      "least": 2881,
      "lect": 2882,
      "leopard": 2883,
      "selves": 2884,
      "itan": 2885,
      "itch": 2886,
      "ities": 2887,
      "bent": 2888,
      "ished": 2889,
      "asure": 2890,
      "kest": 2891,
      "lid": 2892,
      "lion": 2893,
      "lice": 2894,
      "liked": 2895,
      "ades": 2896,
      "roo": 2897,
      "rove": 2898,
      "escape": 2899,
      "mystic": 2900,
      "ache": 2901,
      "lood": 2902,
      "loom": 2903,
      "Them": 2904,
      "ality": 2905,
      "alous": 2906,
      "force": 2907,
      "fortune": 2908,
      "weak": 2909,
      "tick": 2910,
      "shade": 2911,
      "ships": 2912,
      "irons": 2913,
      "univer": 2914,
      "unbelievable": 2915,
      "arest": 2916,
      "akes": 2917,
      "deaf": 2918,
      "cease": 2919,
      "somehow": 2920,
      "soci": 2921,
      "trump": 2922,
      "haven": 2923,
      "loves": 2924,
      "tooth": 2925,
      "apo": 2926,
      "aper": 2927,
      "moving": 2928,
      "nightingale": 2929,
      "usion": 2930,
      "brass": 2931,
      "thinks": 2932,
      "auth": 2933,
      "ately": 2934,
      "food": 2935,
      "ems": 2936,
      "handle": 2937,
      "needed": 2938,
      "spell": 2939,
      "spring": 2940,
      "imag": 2941,
      "livered": 2942,
      "dire": 2943,
      "sung": 2944,
      "drain": 2945,
      "drum": 2946,
      "drunk": 2947,
      "fused": 2948,
      "strings": 2949,
      "falls": 2950,
      "except": 2951,
      "Livin": 2952,
      "sub": 2953,
      "carried": 2954,
      "guy": 2955,
      "guil": 2956,
      "fix": 2957,
      "tele": 2958,
      "teach": 2959,
      "sweep": 2960,
      "serv": 2961,
      "wrote": 2962,
      "working": 2963,
      "dreaming": 2964,
      "bloody": 2965,
      "bloom": 2966,
      "changing": 2967,
      "shoe": 2968,
      "rolled": 2969,
      "flame": 2970,
      "Does": 2971,
      "stayed": 2972,
      "stopped": 2973,
      "probab": 2974,
      "songs": 2975,
      "rule": 2976,
      "painted": 2977,
      "clown": 2978,
      "cursed": 2979,
      "quest": 2980,
      "flood": 2981,
      "birth": 2982,
      "birds": 2983,
      "knocked": 2984,
      "priest": 2985,
      "wheels": 2986,
      "Leave": 2987,
      "Leavin": 2988,
      "final": 2989,
      "glory": 2990,
      "glasses": 2991,
      "opened": 2992,
      "fools": 2993,
      "Johanna": 2994,
      "smiled": 2995,
      "Hopin": 2996,
      "kids": 2997,
      "knee": 2998,
      "content": 2999
    },
    "merges": [
      [
        "h",
        "e"
      ],
      [
        "i",
        "n"
      ],
      [
        "o",
        "u"
      ],
      [
        "t",
        "he"
      ],
      [
        "a",
        "n"
      ],
      [
        "r",
        "e"
      ],
      [
        "o",
        "n"
      ],
      [
        "l",
        "l"
      ],
      [
        "y",
        "ou"
      ],
      [
        "m",
        "e"
      ],
      [
        "t",
        "h"
      ],
      [
        "t",
        "o"
      ],
      [
        "v",
        "e"
      ],
      [
        "s",
        "t"
      ],
      [
        "a",
        "t"
      ],
      [
        "o",
        "w"
      ],
      [
        "in",
        "g"
      ],
      [
        "o",
        "r"
      ],
      [
        "a",
        "r"
      ],
      [
        "an",
        "d"
      ],
      [
        "l",
        "e"
      ],
      [
        "s",
        "e"
      ],
      [
        "i",
        "t"
      ],
      [
        "b",
        "e"
      ],
      [
        "a",
        "y"
      ],
      [
        "n",
        "d"
      ],
      [
        "i",
        "s"
      ],
      [
        "o",
        "f"
      ],
      [
        "e",
        "d"
      ],
      [
        "e",
        "r"
      ],
      [
        "g",
        "h"
      ],
      [
        "a",
        "s"
      ],
      [
        "k",
        "e"
      ],
      [
        "l",
        "i"
      ],
      [
        "o",
        "t"
      ],
      [
        "a",
        "d"
      ],
      [
        "r",
        "o"
      ],
      [
        "e",
        "s"
      ],
      [
        "m",
        "y"
      ],
      [
        "a",
        "ll"
      ],
      [
        "e",
        "n"
      ],
      [
        "i",
        "d"
      ],
      [
        "o",
        "me"
      ],
      [
        "l",
        "d"
      ],
      [
        "a",
        "c"
      ],
      [
        "l",
        "o"
      ],
      [
        "gh",
        "t"
      ],
      [
        "T",
        "he"
      ],
      [
        "a",
        "l"
      ],
      [
        "u",
        "t"
      ],
      [
        "ve",
        "r"
      ],
      [
        "on",
        "e"
      ],
      [
        "you",
        "r"
      ],
      [
        "w",
        "i"
      ],
      [
        "A",
        "nd"
      ],
      [
        "r",
        "i"
      ],
      [
        "th",
        "at"
      ],
      [
        "Y",
        "ou"
      ],
      [
        "n",
        "e"
      ],
      [
        "e",
        "ll"
      ],
      [
        "w",
        "h"
      ],
      [
        "f",
        "or"
      ],
      [
        "e",
        "t"
      ],
      [
        "ow",
        "n"
      ],
      [
        "o",
        "d"
      ],
      [
        "a",
        "in"
      ],
      [
        "c",
        "an"
      ],
      [
        "c",
        "h"
      ],
      [
        "u",
        "st"
      ],
      [
        "n",
        "o"
      ],
      [
        "ou",
        "t"
      ],
      [
        "n",
        "ow"
      ],
      [
        "w",
        "e"
      ],
      [
        "w",
        "as"
      ],
      [
        "g",
        "o"
      ],
      [
        "t",
        "i"
      ],
      [
        "s",
        "h"
      ],
      [
        "d",
        "o"
      ],
      [
        "a",
        "ve"
      ],
      [
        "i",
        "r"
      ],
      [
        "in",
        "d"
      ],
      [
        "u",
        "p"
      ],
      [
        "a",
        "b"
      ],
      [
        "r",
        "y"
      ],
      [
        "w",
        "ay"
      ],
      [
        "u",
        "n"
      ],
      [
        "m",
        "an"
      ],
      [
        "wi",
        "th"
      ],
      [
        "f",
        "e"
      ],
      [
        "i",
        "ght"
      ],
      [
        "he",
        "re"
      ],
      [
        "i",
        "ll"
      ],
      [
        "d",
        "own"
      ],
      [
        "a",
        "re"
      ],
      [
        "a",
        "m"
      ],
      [
        "o",
        "re"
      ],
      [
        "n",
        "a"
      ],
      [
        "u",
        "r"
      ],
      [
        "l",
        "y"
      ],
      [
        "k",
        "now"
      ],
      [
        "a",
        "ke"
      ],
      [
        "the",
        "y"
      ],
      [
        "d",
        "e"
      ],
      [
        "g",
        "ot"
      ],
      [
        "c",
        "e"
      ],
      [
        "o",
        "k"
      ],
      [
        "th",
        "ing"
      ],
      [
        "s",
        "ome"
      ],
      [
        "H",
        "e"
      ],
      [
        "he",
        "n"
      ],
      [
        "li",
        "ke"
      ],
      [
        "ac",
        "k"
      ],
      [
        "c",
        "k"
      ],
      [
        "B",
        "ut"
      ],
      [
        "h",
        "i"
      ],
      [
        "s",
        "a"
      ],
      [
        "on",
        "g"
      ],
      [
        "ro",
        "m"
      ],
      [
        "ou",
        "ld"
      ],
      [
        "s",
        "o"
      ],
      [
        "d",
        "on"
      ],
      [
        "j",
        "ust"
      ],
      [
        "h",
        "is"
      ],
      [
        "p",
        "e"
      ],
      [
        "ti",
        "me"
      ],
      [
        "b",
        "l"
      ],
      [
        "the",
        "r"
      ],
      [
        "W",
        "ell"
      ],
      [
        "c",
        "o"
      ],
      [
        "t",
        "r"
      ],
      [
        "ar",
        "t"
      ],
      [
        "ou",
        "nd"
      ],
      [
        "the",
        "re"
      ],
      [
        "id",
        "e"
      ],
      [
        "se",
        "e"
      ],
      [
        "h",
        "at"
      ],
      [
        "wh",
        "at"
      ],
      [
        "e",
        "l"
      ],
      [
        "p",
        "l"
      ],
      [
        "s",
        "he"
      ],
      [
        "e",
        "p"
      ],
      [
        "h",
        "o"
      ],
      [
        "he",
        "r"
      ],
      [
        "s",
        "ay"
      ],
      [
        "f",
        "rom"
      ],
      [
        "n",
        "ot"
      ],
      [
        "w",
        "or"
      ],
      [
        "a",
        "g"
      ],
      [
        "h",
        "ave"
      ],
      [
        "al",
        "k"
      ],
      [
        "I",
        "t"
      ],
      [
        "ar",
        "d"
      ],
      [
        "lo",
        "ve"
      ],
      [
        "i",
        "l"
      ],
      [
        "e",
        "ver"
      ],
      [
        "an",
        "t"
      ],
      [
        "on",
        "na"
      ],
      [
        "an",
        "g"
      ],
      [
        "ac",
        "e"
      ],
      [
        "e",
        "y"
      ],
      [
        "od",
        "y"
      ],
      [
        "d",
        "ay"
      ],
      [
        "t",
        "er"
      ],
      [
        "g",
        "et"
      ],
      [
        "a",
        "st"
      ],
      [
        "b",
        "ody"
      ],
      [
        "in",
        "k"
      ],
      [
        "in",
        "e"
      ],
      [
        "c",
        "ome"
      ],
      [
        "g",
        "onna"
      ],
      [
        "ou",
        "gh"
      ],
      [
        "p",
        "le"
      ],
      [
        "to",
        "o"
      ],
      [
        "i",
        "on"
      ],
      [
        "u",
        "m"
      ],
      [
        "T",
        "o"
      ],
      [
        "b",
        "y"
      ],
      [
        "b",
        "ack"
      ],
      [
        "hi",
        "m"
      ],
      [
        "a",
        "p"
      ],
      [
        "sa",
        "id"
      ],
      [
        "e",
        "nd"
      ],
      [
        "m",
        "ore"
      ],
      [
        "s",
        "s"
      ],
      [
        "n",
        "t"
      ],
      [
        "b",
        "o"
      ],
      [
        "be",
        "en"
      ],
      [
        "lo",
        "ok"
      ],
      [
        "b",
        "ut"
      ],
      [
        "an",
        "y"
      ],
      [
        "i",
        "f"
      ],
      [
        "S",
        "he"
      ],
      [
        "i",
        "e"
      ],
      [
        "m",
        "o"
      ],
      [
        "th",
        "is"
      ],
      [
        "u",
        "e"
      ],
      [
        "The",
        "y"
      ],
      [
        "W",
        "hen"
      ],
      [
        "wh",
        "o"
      ],
      [
        "wi",
        "ll"
      ],
      [
        "w",
        "here"
      ],
      [
        "ur",
        "n"
      ],
      [
        "n",
        "ight"
      ],
      [
        "a",
        "me"
      ],
      [
        "ri",
        "ght"
      ],
      [
        "ab",
        "y"
      ],
      [
        "I",
        "n"
      ],
      [
        "l",
        "ow"
      ],
      [
        "e",
        "ar"
      ],
      [
        "p",
        "o"
      ],
      [
        "w",
        "hen"
      ],
      [
        "en",
        "t"
      ],
      [
        "a",
        "k"
      ],
      [
        "c",
        "ould"
      ],
      [
        "w",
        "ant"
      ],
      [
        "w",
        "alk"
      ],
      [
        "i",
        "c"
      ],
      [
        "u",
        "s"
      ],
      [
        "d",
        "id"
      ],
      [
        "I",
        "f"
      ],
      [
        "w",
        "o"
      ],
      [
        "i",
        "le"
      ],
      [
        "se",
        "d"
      ],
      [
        "i",
        "ve"
      ],
      [
        "re",
        "d"
      ],
      [
        "th",
        "r"
      ],
      [
        "b",
        "r"
      ],
      [
        "O",
        "h"
      ],
      [
        "i",
        "g"
      ],
      [
        "th",
        "ink"
      ],
      [
        "ne",
        "ver"
      ],
      [
        "T",
        "hat"
      ],
      [
        "b",
        "le"
      ],
      [
        "l",
        "ong"
      ],
      [
        "s",
        "ide"
      ],
      [
        "t",
        "ell"
      ],
      [
        "e",
        "ve"
      ],
      [
        "a",
        "u"
      ],
      [
        "ou",
        "r"
      ],
      [
        "r",
        "a"
      ],
      [
        "or",
        "n"
      ],
      [
        "at",
        "e"
      ],
      [
        "er",
        "s"
      ],
      [
        "g",
        "r"
      ],
      [
        "b",
        "aby"
      ],
      [
        "he",
        "art"
      ],
      [
        "the",
        "m"
      ],
      [
        "i",
        "st"
      ],
      [
        "a",
        "th"
      ],
      [
        "i",
        "th"
      ],
      [
        "le",
        "t"
      ],
      [
        "D",
        "on"
      ],
      [
        "m",
        "ake"
      ],
      [
        "f",
        "ore"
      ],
      [
        "W",
        "e"
      ],
      [
        "h",
        "ad"
      ],
      [
        "l",
        "f"
      ],
      [
        "u",
        "re"
      ],
      [
        "The",
        "re"
      ],
      [
        "es",
        "s"
      ],
      [
        "li",
        "ght"
      ],
      [
        "go",
        "od"
      ],
      [
        "u",
        "nd"
      ],
      [
        "fe",
        "el"
      ],
      [
        "a",
        "se"
      ],
      [
        "ab",
        "out"
      ],
      [
        "f",
        "o"
      ],
      [
        "we",
        "re"
      ],
      [
        "e",
        "m"
      ],
      [
        "thr",
        "ough"
      ],
      [
        "c",
        "on"
      ],
      [
        "st",
        "and"
      ],
      [
        "ever",
        "y"
      ],
      [
        "h",
        "and"
      ],
      [
        "t",
        "ake"
      ],
      [
        "W",
        "ith"
      ],
      [
        "a",
        "way"
      ],
      [
        "s",
        "to"
      ],
      [
        "w",
        "n"
      ],
      [
        "be",
        "r"
      ],
      [
        "N",
        "o"
      ],
      [
        "w",
        "ould"
      ],
      [
        "M",
        "y"
      ],
      [
        "S",
        "ome"
      ],
      [
        "o",
        "ther"
      ],
      [
        "co",
        "m"
      ],
      [
        "re",
        "e"
      ],
      [
        "h",
        "ow"
      ],
      [
        "in",
        "to"
      ],
      [
        "t",
        "y"
      ],
      [
        "ar",
        "ound"
      ],
      [
        "d",
        "re"
      ],
      [
        "he",
        "ad"
      ],
      [
        "ne",
        "ed"
      ],
      [
        "m",
        "ind"
      ],
      [
        "s",
        "p"
      ],
      [
        "i",
        "m"
      ],
      [
        "t",
        "le"
      ],
      [
        "t",
        "urn"
      ],
      [
        "se",
        "lf"
      ],
      [
        "ad",
        "e"
      ],
      [
        "i",
        "ck"
      ],
      [
        "f",
        "t"
      ],
      [
        "the",
        "ir"
      ],
      [
        "re",
        "ad"
      ],
      [
        "ey",
        "es"
      ],
      [
        "o",
        "m"
      ],
      [
        "a",
        "ir"
      ],
      [
        "g",
        "ive"
      ],
      [
        "m",
        "u"
      ],
      [
        "w",
        "ind"
      ],
      [
        "b",
        "u"
      ],
      [
        "g",
        "e"
      ],
      [
        "r",
        "ow"
      ],
      [
        "ro",
        "ad"
      ],
      [
        "ne",
        "w"
      ],
      [
        "s",
        "k"
      ],
      [
        "S",
        "o"
      ],
      [
        "one",
        "y"
      ],
      [
        "pl",
        "ay"
      ],
      [
        "ver",
        "y"
      ],
      [
        "W",
        "hat"
      ],
      [
        "q",
        "u"
      ],
      [
        "it",
        "y"
      ],
      [
        "o",
        "ple"
      ],
      [
        "A",
        "ll"
      ],
      [
        "F",
        "or"
      ],
      [
        "N",
        "ow"
      ],
      [
        "n",
        "g"
      ],
      [
        "p",
        "r"
      ],
      [
        "ou",
        "s"
      ],
      [
        "st",
        "ill"
      ],
      [
        "ar",
        "k"
      ],
      [
        "do",
        "or"
      ],
      [
        "wor",
        "ld"
      ],
      [
        "w",
        "on"
      ],
      [
        "li",
        "ve"
      ],
      [
        "S",
        "t"
      ],
      [
        "c",
        "all"
      ],
      [
        "l",
        "it"
      ],
      [
        "ou",
        "nt"
      ],
      [
        "way",
        "s"
      ],
      [
        "h",
        "ard"
      ],
      [
        "o",
        "h"
      ],
      [
        "o",
        "ld"
      ],
      [
        "W",
        "here"
      ],
      [
        "d",
        "i"
      ],
      [
        "o",
        "ver"
      ],
      [
        "s",
        "un"
      ],
      [
        "m",
        "ust"
      ],
      [
        "on",
        "ly"
      ],
      [
        "d",
        "r"
      ],
      [
        "g",
        "one"
      ],
      [
        "p",
        "re"
      ],
      [
        "me",
        "m"
      ],
      [
        "f",
        "ri"
      ],
      [
        "und",
        "er"
      ],
      [
        "b",
        "re"
      ],
      [
        "c",
        "he"
      ],
      [
        "f",
        "u"
      ],
      [
        "st",
        "r"
      ],
      [
        "O",
        "n"
      ],
      [
        "T",
        "h"
      ],
      [
        "c",
        "lo"
      ],
      [
        "f",
        "all"
      ],
      [
        "o",
        "l"
      ],
      [
        "eve",
        "n"
      ],
      [
        "fri",
        "end"
      ],
      [
        "L",
        "o"
      ],
      [
        "e",
        "x"
      ],
      [
        "st",
        "re"
      ],
      [
        "is",
        "s"
      ],
      [
        "pl",
        "ace"
      ],
      [
        "pe",
        "ople"
      ],
      [
        "of",
        "f"
      ],
      [
        "li",
        "fe"
      ],
      [
        "L",
        "i"
      ],
      [
        "w",
        "at"
      ],
      [
        "w",
        "ell"
      ],
      [
        "he",
        "ar"
      ],
      [
        "or",
        "d"
      ],
      [
        "p",
        "en"
      ],
      [
        "ag",
        "ain"
      ],
      [
        "f",
        "ace"
      ],
      [
        "t",
        "ry"
      ],
      [
        "w",
        "ent"
      ],
      [
        "to",
        "wn"
      ],
      [
        "ke",
        "ep"
      ],
      [
        "W",
        "ho"
      ],
      [
        "a",
        "it"
      ],
      [
        "f",
        "ar"
      ],
      [
        "s",
        "u"
      ],
      [
        "mu",
        "ch"
      ],
      [
        "l",
        "ay"
      ],
      [
        "bl",
        "ow"
      ],
      [
        "c",
        "ar"
      ],
      [
        "ou",
        "ght"
      ],
      [
        "is",
        "h"
      ],
      [
        "E",
        "very"
      ],
      [
        "g",
        "u"
      ],
      [
        "al",
        "ways"
      ],
      [
        "ear",
        "s"
      ],
      [
        "f",
        "i"
      ],
      [
        "t",
        "e"
      ],
      [
        "all",
        "y"
      ],
      [
        "time",
        "s"
      ],
      [
        "B",
        "e"
      ],
      [
        "G",
        "od"
      ],
      [
        "m",
        "orn"
      ],
      [
        "an",
        "ce"
      ],
      [
        "s",
        "ing"
      ],
      [
        "at",
        "ion"
      ],
      [
        "be",
        "g"
      ],
      [
        "thing",
        "s"
      ],
      [
        "ho",
        "ld"
      ],
      [
        "wo",
        "man"
      ],
      [
        "h",
        "ome"
      ],
      [
        "l",
        "and"
      ],
      [
        "s",
        "we"
      ],
      [
        "t",
        "s"
      ],
      [
        "the",
        "n"
      ],
      [
        "th",
        "in"
      ],
      [
        "th",
        "an"
      ],
      [
        "se",
        "r"
      ],
      [
        "be",
        "fore"
      ],
      [
        "s",
        "pe"
      ],
      [
        "u",
        "d"
      ],
      [
        "w",
        "r"
      ],
      [
        "A",
        "n"
      ],
      [
        "J",
        "ust"
      ],
      [
        "b",
        "ro"
      ],
      [
        "m",
        "ade"
      ],
      [
        "r",
        "un"
      ],
      [
        "me",
        "n"
      ],
      [
        "a",
        "il"
      ],
      [
        "c",
        "r"
      ],
      [
        "l",
        "ast"
      ],
      [
        "m",
        "ight"
      ],
      [
        "p",
        "ut"
      ],
      [
        "The",
        "n"
      ],
      [
        "wor",
        "k"
      ],
      [
        "dre",
        "am"
      ],
      [
        "b",
        "lo"
      ],
      [
        "h",
        "as"
      ],
      [
        "ac",
        "h"
      ],
      [
        "ir",
        "l"
      ],
      [
        "some",
        "thing"
      ],
      [
        "hi",
        "gh"
      ],
      [
        "say",
        "s"
      ],
      [
        "lit",
        "tle"
      ],
      [
        "R",
        "o"
      ],
      [
        "g",
        "g"
      ],
      [
        "t",
        "on"
      ],
      [
        "w",
        "ait"
      ],
      [
        "as",
        "k"
      ],
      [
        "a",
        "v"
      ],
      [
        "i",
        "ld"
      ],
      [
        "it",
        "e"
      ],
      [
        "na",
        "me"
      ],
      [
        "au",
        "se"
      ],
      [
        "A",
        "s"
      ],
      [
        "a",
        "ther"
      ],
      [
        "t",
        "alk"
      ],
      [
        "be",
        "t"
      ],
      [
        "ri",
        "ed"
      ],
      [
        "go",
        "ing"
      ],
      [
        "a",
        "f"
      ],
      [
        "l",
        "u"
      ],
      [
        "ou",
        "ble"
      ],
      [
        "be",
        "d"
      ],
      [
        "ch",
        "ang"
      ],
      [
        "no",
        "thing"
      ],
      [
        "sh",
        "o"
      ],
      [
        "mem",
        "ber"
      ],
      [
        "i",
        "es"
      ],
      [
        "l",
        "a"
      ],
      [
        "p",
        "ed"
      ],
      [
        "me",
        "r"
      ],
      [
        "ro",
        "ss"
      ],
      [
        "e",
        "v"
      ],
      [
        "m",
        "ay"
      ],
      [
        "on",
        "es"
      ],
      [
        "to",
        "r"
      ],
      [
        "c",
        "ry"
      ],
      [
        "d",
        "s"
      ],
      [
        "am",
        "a"
      ],
      [
        "read",
        "y"
      ],
      [
        "stre",
        "et"
      ],
      [
        "?",
        "”"
      ],
      [
        "I",
        "s"
      ],
      [
        "k",
        "ind"
      ],
      [
        "m",
        "ile"
      ],
      [
        "c",
        "t"
      ],
      [
        "l",
        "ad"
      ],
      [
        "man",
        "y"
      ],
      [
        "F",
        "rom"
      ],
      [
        "e",
        "e"
      ],
      [
        "f",
        "ind"
      ],
      [
        "i",
        "ce"
      ],
      [
        "ing",
        "s"
      ],
      [
        "se",
        "s"
      ],
      [
        "as",
        "s"
      ],
      [
        "ro",
        "ll"
      ],
      [
        "f",
        "l"
      ],
      [
        "w",
        "all"
      ],
      [
        "le",
        "ep"
      ],
      [
        "b",
        "urn"
      ],
      [
        "p",
        "s"
      ],
      [
        "t",
        "a"
      ],
      [
        "’",
        ","
      ],
      [
        "be",
        "li"
      ],
      [
        "H",
        "ow"
      ],
      [
        "g",
        "re"
      ],
      [
        "l",
        "ine"
      ],
      [
        "z",
        "e"
      ],
      [
        "ar",
        "m"
      ],
      [
        "ke",
        "n"
      ],
      [
        "D",
        "o"
      ],
      [
        "d",
        "er"
      ],
      [
        "g",
        "irl"
      ],
      [
        "h",
        "ang"
      ],
      [
        "s",
        "c"
      ],
      [
        "y",
        "a"
      ],
      [
        "an",
        "na"
      ],
      [
        "to",
        "ok"
      ],
      [
        "st",
        "ay"
      ],
      [
        "le",
        "ft"
      ],
      [
        "You",
        "r"
      ],
      [
        "k",
        "ill"
      ],
      [
        "le",
        "ss"
      ],
      [
        "ag",
        "e"
      ],
      [
        "bre",
        "ak"
      ],
      [
        "G",
        "o"
      ],
      [
        "M",
        "o"
      ],
      [
        "Y",
        "es"
      ],
      [
        "c",
        "ame"
      ],
      [
        "h",
        "ind"
      ],
      [
        "re",
        "member"
      ],
      [
        "se",
        "en"
      ],
      [
        "no",
        "body"
      ],
      [
        "de",
        "ad"
      ],
      [
        "come",
        "s"
      ],
      [
        "did",
        "n"
      ],
      [
        "d",
        "ark"
      ],
      [
        "le",
        "d"
      ],
      [
        "ro",
        "om"
      ],
      [
        "ti",
        "l"
      ],
      [
        ",",
        "”"
      ],
      [
        "D",
        "own"
      ],
      [
        "L",
        "ord"
      ],
      [
        "O",
        "ne"
      ],
      [
        "i",
        "gh"
      ],
      [
        "tr",
        "ue"
      ],
      [
        "Li",
        "ke"
      ],
      [
        "W",
        "ill"
      ],
      [
        "i",
        "se"
      ],
      [
        "l",
        "ate"
      ],
      [
        "sa",
        "w"
      ],
      [
        "mo",
        "on"
      ],
      [
        "C",
        "ome"
      ],
      [
        "T",
        "ell"
      ],
      [
        "a",
        "h"
      ],
      [
        "d",
        "ri"
      ],
      [
        "p",
        "er"
      ],
      [
        "r",
        "ain"
      ],
      [
        "s",
        "it"
      ],
      [
        "in",
        "n"
      ],
      [
        "as",
        "h"
      ],
      [
        "c",
        "le"
      ],
      [
        "h",
        "ap"
      ],
      [
        "t",
        "en"
      ],
      [
        "ve",
        "n"
      ],
      [
        "st",
        "ar"
      ],
      [
        "ow",
        "s"
      ],
      [
        "be",
        "hind"
      ],
      [
        "m",
        "at"
      ],
      [
        "r",
        "ing"
      ],
      [
        "go",
        "in"
      ],
      [
        "some",
        "one"
      ],
      [
        "sto",
        "p"
      ],
      [
        "ton",
        "ight"
      ],
      [
        "bet",
        "ter"
      ],
      [
        "O",
        "r"
      ],
      [
        "d",
        "is"
      ],
      [
        "f",
        "low"
      ],
      [
        "w",
        "anna"
      ],
      [
        "in",
        "side"
      ],
      [
        "re",
        "ally"
      ],
      [
        "some",
        "body"
      ],
      [
        "p",
        "ro"
      ],
      [
        "s",
        "leep"
      ],
      [
        "al",
        "one"
      ],
      [
        "your",
        "self"
      ],
      [
        "p",
        "in"
      ],
      [
        "t",
        "re"
      ],
      [
        "an",
        "c"
      ],
      [
        "s",
        "ong"
      ],
      [
        "y",
        "er"
      ],
      [
        "sh",
        "ow"
      ],
      [
        "know",
        "s"
      ],
      [
        "look",
        "in"
      ],
      [
        "h",
        "y"
      ],
      [
        "i",
        "p"
      ],
      [
        "m",
        "oney"
      ],
      [
        "r",
        "u"
      ],
      [
        "st",
        "art"
      ],
      [
        "le",
        "s"
      ],
      [
        "wh",
        "ile"
      ],
      [
        "bl",
        "ack"
      ],
      [
        "walk",
        "in"
      ],
      [
        "c",
        "ause"
      ],
      [
        "e",
        "st"
      ],
      [
        "t",
        "in"
      ],
      [
        "st",
        "ep"
      ],
      [
        "le",
        "ave"
      ],
      [
        "ch",
        "ild"
      ],
      [
        "do",
        "es"
      ],
      [
        "tr",
        "ouble"
      ],
      [
        "bo",
        "y"
      ],
      [
        "em",
        "p"
      ],
      [
        "fi",
        "re"
      ],
      [
        "S",
        "ay"
      ],
      [
        "d",
        "y"
      ],
      [
        "d",
        "one"
      ],
      [
        "l",
        "t"
      ],
      [
        "l",
        "in"
      ],
      [
        "s",
        "ou"
      ],
      [
        "to",
        "m"
      ],
      [
        "morn",
        "ing"
      ],
      [
        "blo",
        "od"
      ],
      [
        "beli",
        "eve"
      ],
      [
        "S",
        "h"
      ],
      [
        "b",
        "a"
      ],
      [
        "c",
        "ount"
      ],
      [
        "l",
        "ing"
      ],
      [
        "n",
        "ess"
      ],
      [
        "p",
        "ain"
      ],
      [
        "t",
        "ing"
      ],
      [
        "v",
        "ing"
      ],
      [
        "lo",
        "st"
      ],
      [
        "B",
        "l"
      ],
      [
        "N",
        "e"
      ],
      [
        "v",
        "in"
      ],
      [
        "th",
        "ought"
      ],
      [
        "ig",
        "n"
      ],
      [
        "sk",
        "y"
      ],
      [
        "A",
        "in"
      ],
      [
        "b",
        "ad"
      ],
      [
        "m",
        "ine"
      ],
      [
        "r",
        "an"
      ],
      [
        "on",
        "d"
      ],
      [
        "de",
        "ath"
      ],
      [
        "br",
        "ing"
      ],
      [
        "c",
        "re"
      ],
      [
        "e",
        "ah"
      ],
      [
        "f",
        "ly"
      ],
      [
        "k",
        "n"
      ],
      [
        "he",
        "ard"
      ],
      [
        "ou",
        "se"
      ],
      [
        "you",
        "ng"
      ],
      [
        "st",
        "one"
      ],
      [
        "fe",
        "et"
      ],
      [
        "ple",
        "ase"
      ],
      [
        "swe",
        "et"
      ],
      [
        "H",
        "is"
      ],
      [
        "P",
        "lay"
      ],
      [
        "s",
        "ure"
      ],
      [
        "t",
        "ed"
      ],
      [
        "an",
        "other"
      ],
      [
        "or",
        "row"
      ],
      [
        "be",
        "st"
      ],
      [
        "my",
        "self"
      ],
      [
        "sh",
        "ot"
      ],
      [
        "wat",
        "er"
      ],
      [
        "wr",
        "ong"
      ],
      [
        "f",
        "f"
      ],
      [
        "s",
        "sed"
      ],
      [
        "the",
        "se"
      ],
      [
        "al",
        "ong"
      ],
      [
        "Lo",
        "ok"
      ],
      [
        "C",
        "an"
      ],
      [
        "L",
        "et"
      ],
      [
        "an",
        "s"
      ],
      [
        "no",
        "ck"
      ],
      [
        "com",
        "in"
      ],
      [
        "pr",
        "ay"
      ],
      [
        "cry",
        "ing"
      ],
      [
        "b",
        "ig"
      ],
      [
        "s",
        "low"
      ],
      [
        "ar",
        "n"
      ],
      [
        "be",
        "ll"
      ],
      [
        "bl",
        "ue"
      ],
      [
        "hand",
        "s"
      ],
      [
        "pre",
        "t"
      ],
      [
        "sou",
        "l"
      ],
      [
        "ba",
        "be"
      ],
      [
        "M",
        "e"
      ],
      [
        "M",
        "ay"
      ],
      [
        "i",
        "me"
      ],
      [
        "m",
        "ill"
      ],
      [
        "p",
        "a"
      ],
      [
        "r",
        "ide"
      ],
      [
        "t",
        "wo"
      ],
      [
        "u",
        "es"
      ],
      [
        "ri",
        "p"
      ],
      [
        "ri",
        "ver"
      ],
      [
        "wh",
        "y"
      ],
      [
        "tr",
        "u"
      ],
      [
        "mat",
        "ter"
      ],
      [
        "J",
        "o"
      ],
      [
        "c",
        "l"
      ],
      [
        "c",
        "ur"
      ],
      [
        "d",
        "en"
      ],
      [
        "d",
        "ie"
      ],
      [
        "h",
        "air"
      ],
      [
        "k",
        "new"
      ],
      [
        "q",
        "ue"
      ],
      [
        "go",
        "ld"
      ],
      [
        "ave",
        "n"
      ],
      [
        "with",
        "out"
      ],
      [
        "who",
        "le"
      ],
      [
        "ount",
        "ain"
      ],
      [
        "B",
        "aby"
      ],
      [
        "M",
        "an"
      ],
      [
        "W",
        "hi"
      ],
      [
        "h",
        "ill"
      ],
      [
        "l",
        "ot"
      ],
      [
        "t",
        "ou"
      ],
      [
        "in",
        "a"
      ],
      [
        "ll",
        "ow"
      ],
      [
        "st",
        "e"
      ],
      [
        "ar",
        "y"
      ],
      [
        "ne",
        "ath"
      ],
      [
        "sa",
        "me"
      ],
      [
        "um",
        "p"
      ],
      [
        "ak",
        "ing"
      ],
      [
        "bro",
        "ken"
      ],
      [
        "A",
        "t"
      ],
      [
        "c",
        "ke"
      ],
      [
        "c",
        "ut"
      ],
      [
        "f",
        "lo"
      ],
      [
        "f",
        "ree"
      ],
      [
        "h",
        "ur"
      ],
      [
        "l",
        "p"
      ],
      [
        "p",
        "u"
      ],
      [
        "all",
        "ey"
      ],
      [
        "ne",
        "ar"
      ],
      [
        "co",
        "ld"
      ],
      [
        "ous",
        "and"
      ],
      [
        "P",
        "le"
      ],
      [
        "T",
        "ake"
      ],
      [
        "b",
        "orn"
      ],
      [
        "c",
        "i"
      ],
      [
        "u",
        "sed"
      ],
      [
        "and",
        "y"
      ],
      [
        "al",
        "s"
      ],
      [
        "no",
        "thin"
      ],
      [
        "up",
        "on"
      ],
      [
        "look",
        "ed"
      ],
      [
        "au",
        "ght"
      ],
      [
        "gr",
        "ound"
      ],
      [
        "fu",
        "l"
      ],
      [
        "H",
        "en"
      ],
      [
        "T",
        "r"
      ],
      [
        "c",
        "ross"
      ],
      [
        "g",
        "un"
      ],
      [
        "h",
        "ouse"
      ],
      [
        "k",
        "ing"
      ],
      [
        "o",
        "se"
      ],
      [
        "s",
        "in"
      ],
      [
        "s",
        "ad"
      ],
      [
        "w",
        "ish"
      ],
      [
        "as",
        "on"
      ],
      [
        "sh",
        "ould"
      ],
      [
        "ab",
        "le"
      ],
      [
        "He",
        "art"
      ],
      [
        "friend",
        "s"
      ],
      [
        "G",
        "ot"
      ],
      [
        "R",
        "e"
      ],
      [
        "c",
        "at"
      ],
      [
        "c",
        "are"
      ],
      [
        "g",
        "s"
      ],
      [
        "h",
        "our"
      ],
      [
        "o",
        "ve"
      ],
      [
        "p",
        "art"
      ],
      [
        "t",
        "ain"
      ],
      [
        "w",
        "ake"
      ],
      [
        "x",
        "t"
      ],
      [
        "he",
        "ll"
      ],
      [
        "ll",
        "y"
      ],
      [
        "th",
        "ousand"
      ],
      [
        "it",
        "s"
      ],
      [
        "um",
        "mer"
      ],
      [
        "str",
        "ang"
      ],
      [
        "mill",
        "ion"
      ],
      [
        "Ple",
        "ase"
      ],
      [
        "Hen",
        "ry"
      ],
      [
        "A",
        "l"
      ],
      [
        "A",
        "re"
      ],
      [
        "M",
        "iss"
      ],
      [
        "v",
        "o"
      ],
      [
        "y",
        "ears"
      ],
      [
        "me",
        "et"
      ],
      [
        "li",
        "m"
      ],
      [
        "ne",
        "xt"
      ],
      [
        "tr",
        "ain"
      ],
      [
        "ist",
        "er"
      ],
      [
        "af",
        "ter"
      ],
      [
        "b",
        "ir"
      ],
      [
        "c",
        "ra"
      ],
      [
        "k",
        "nock"
      ],
      [
        "re",
        "st"
      ],
      [
        "on",
        "ce"
      ],
      [
        "wh",
        "ite"
      ],
      [
        "ti",
        "on"
      ],
      [
        "sh",
        "all"
      ],
      [
        "pl",
        "ain"
      ],
      [
        "mo",
        "ve"
      ],
      [
        "dr",
        "ink"
      ],
      [
        "che",
        "d"
      ],
      [
        "Lo",
        "ve"
      ],
      [
        "ser",
        "ve"
      ],
      [
        "inn",
        "ing"
      ],
      [
        ".",
        "”"
      ],
      [
        "B",
        "r"
      ],
      [
        "B",
        "y"
      ],
      [
        "M",
        "ama"
      ],
      [
        "P",
        "e"
      ],
      [
        "f",
        "ell"
      ],
      [
        "f",
        "ight"
      ],
      [
        "f",
        "ill"
      ],
      [
        "h",
        "or"
      ],
      [
        "j",
        "o"
      ],
      [
        "m",
        "on"
      ],
      [
        "p",
        "ri"
      ],
      [
        "u",
        "ne"
      ],
      [
        "w",
        "he"
      ],
      [
        "he",
        "aven"
      ],
      [
        "the",
        "s"
      ],
      [
        "re",
        "n"
      ],
      [
        "ir",
        "st"
      ],
      [
        "ab",
        "ove"
      ],
      [
        "un",
        "g"
      ],
      [
        "fo",
        "ot"
      ],
      [
        "won",
        "der"
      ],
      [
        "gg",
        "le"
      ],
      [
        "chang",
        "ed"
      ],
      [
        "B",
        "o"
      ],
      [
        "L",
        "e"
      ],
      [
        "T",
        "his"
      ],
      [
        "i",
        "x"
      ],
      [
        "j",
        "ud"
      ],
      [
        "m",
        "in"
      ],
      [
        "p",
        "ast"
      ],
      [
        "r",
        "ound"
      ],
      [
        "t",
        "wi"
      ],
      [
        "he",
        "lp"
      ],
      [
        "me",
        "an"
      ],
      [
        "as",
        "y"
      ],
      [
        "sh",
        "ad"
      ],
      [
        "so",
        "on"
      ],
      [
        "day",
        "s"
      ],
      [
        "every",
        "thing"
      ],
      [
        "clo",
        "thes"
      ],
      [
        "mile",
        "s"
      ],
      [
        "kn",
        "own"
      ],
      [
        "pret",
        "ty"
      ],
      [
        "H",
        "oney"
      ],
      [
        "b",
        "ar"
      ],
      [
        "f",
        "in"
      ],
      [
        "g",
        "l"
      ],
      [
        "k",
        "s"
      ],
      [
        "m",
        "id"
      ],
      [
        "m",
        "ama"
      ],
      [
        "n",
        "y"
      ],
      [
        "p",
        "h"
      ],
      [
        "p",
        "as"
      ],
      [
        "t",
        "ears"
      ],
      [
        "z",
        "y"
      ],
      [
        "he",
        "d"
      ],
      [
        "in",
        "s"
      ],
      [
        "in",
        "ter"
      ],
      [
        "st",
        "u"
      ],
      [
        "en",
        "ce"
      ],
      [
        "ch",
        "o"
      ],
      [
        "de",
        "ep"
      ],
      [
        "bl",
        "ind"
      ],
      [
        "mo",
        "st"
      ],
      [
        "sk",
        "in"
      ],
      [
        "Every",
        "body"
      ],
      [
        "Ne",
        "w"
      ],
      [
        "R",
        "u"
      ],
      [
        "W",
        "hy"
      ],
      [
        "b",
        "ound"
      ],
      [
        "p",
        "t"
      ],
      [
        "s",
        "il"
      ],
      [
        "ac",
        "ross"
      ],
      [
        "we",
        "ar"
      ],
      [
        "ck",
        "s"
      ],
      [
        "see",
        "m"
      ],
      [
        "fo",
        "llow"
      ],
      [
        "would",
        "n"
      ],
      [
        "wind",
        "ow"
      ],
      [
        "D",
        "e"
      ],
      [
        "H",
        "igh"
      ],
      [
        "a",
        "le"
      ],
      [
        "f",
        "our"
      ],
      [
        "g",
        "ave"
      ],
      [
        "g",
        "am"
      ],
      [
        "g",
        "ame"
      ],
      [
        "o",
        "pen"
      ],
      [
        "re",
        "al"
      ],
      [
        "re",
        "ason"
      ],
      [
        "me",
        "t"
      ],
      [
        "to",
        "ld"
      ],
      [
        "st",
        "ra"
      ],
      [
        "se",
        "t"
      ],
      [
        "ot",
        "e"
      ],
      [
        "ac",
        "t"
      ],
      [
        "sh",
        "ip"
      ],
      [
        "bl",
        "ues"
      ],
      [
        "ard",
        "s"
      ],
      [
        "br",
        "ain"
      ],
      [
        "We",
        "st"
      ],
      [
        "fo",
        "ol"
      ],
      [
        "under",
        "stand"
      ],
      [
        "spe",
        "ak"
      ],
      [
        "dream",
        "s"
      ],
      [
        "hap",
        "pen"
      ],
      [
        "count",
        "ry"
      ],
      [
        "flo",
        "or"
      ],
      [
        "A",
        "ng"
      ],
      [
        "G",
        "onna"
      ],
      [
        "J",
        "oh"
      ],
      [
        "b",
        "ot"
      ],
      [
        "f",
        "r"
      ],
      [
        "h",
        "oney"
      ],
      [
        "s",
        "on"
      ],
      [
        "me",
        "d"
      ],
      [
        "th",
        "ough"
      ],
      [
        "le",
        "arn"
      ],
      [
        "se",
        "a"
      ],
      [
        "al",
        "ready"
      ],
      [
        "wi",
        "ld"
      ],
      [
        "for",
        "get"
      ],
      [
        "ill",
        "y"
      ],
      [
        "el",
        "se"
      ],
      [
        "ig",
        "g"
      ],
      [
        "try",
        "ing"
      ],
      [
        "gu",
        "ess"
      ],
      [
        "beg",
        "inning"
      ],
      [
        "la",
        "w"
      ],
      [
        "lad",
        "y"
      ],
      [
        "Will",
        "ie"
      ],
      [
        "c",
        "y"
      ],
      [
        "c",
        "ro"
      ],
      [
        "e",
        "ach"
      ],
      [
        "i",
        "an"
      ],
      [
        "i",
        "ch"
      ],
      [
        "m",
        "ountain"
      ],
      [
        "s",
        "ound"
      ],
      [
        "s",
        "mile"
      ],
      [
        "t",
        "ri"
      ],
      [
        "u",
        "l"
      ],
      [
        "w",
        "ar"
      ],
      [
        "y",
        "es"
      ],
      [
        "wi",
        "ggle"
      ],
      [
        "ho",
        "pe"
      ],
      [
        "wor",
        "ds"
      ],
      [
        "look",
        "ing"
      ],
      [
        "turn",
        "ed"
      ],
      [
        "wat",
        "ch"
      ],
      [
        "kill",
        "ed"
      ],
      [
        "Whi",
        "le"
      ],
      [
        "tou",
        "ch"
      ],
      [
        "Ang",
        "el"
      ],
      [
        "b",
        "all"
      ],
      [
        "b",
        "out"
      ],
      [
        "c",
        "tion"
      ],
      [
        "f",
        "un"
      ],
      [
        "f",
        "ound"
      ],
      [
        "g",
        "lad"
      ],
      [
        "i",
        "o"
      ],
      [
        "l",
        "s"
      ],
      [
        "s",
        "ummer"
      ],
      [
        "an",
        "e"
      ],
      [
        "on",
        "t"
      ],
      [
        "or",
        "s"
      ],
      [
        "ome",
        "n"
      ],
      [
        "sh",
        "ine"
      ],
      [
        "ag",
        "g"
      ],
      [
        "ey",
        "ed"
      ],
      [
        "bo",
        "ok"
      ],
      [
        "po",
        "or"
      ],
      [
        "sho",
        "es"
      ],
      [
        "street",
        "s"
      ],
      [
        "Bl",
        "ack"
      ],
      [
        "bell",
        "s"
      ],
      [
        "stra",
        "ight"
      ],
      [
        "H",
        "o"
      ],
      [
        "J",
        "ack"
      ],
      [
        "N",
        "ot"
      ],
      [
        "W",
        "on"
      ],
      [
        "b",
        "us"
      ],
      [
        "c",
        "row"
      ],
      [
        "d",
        "ist"
      ],
      [
        "f",
        "le"
      ],
      [
        "g",
        "ar"
      ],
      [
        "p",
        "ar"
      ],
      [
        "p",
        "ass"
      ],
      [
        "u",
        "se"
      ],
      [
        "ou",
        "th"
      ],
      [
        "ll",
        "ar"
      ],
      [
        "me",
        "nt"
      ],
      [
        "ar",
        "row"
      ],
      [
        "ke",
        "y"
      ],
      [
        "li",
        "p"
      ],
      [
        "sh",
        "in"
      ],
      [
        "am",
        "b"
      ],
      [
        "pe",
        "ace"
      ],
      [
        "any",
        "thing"
      ],
      [
        "want",
        "ed"
      ],
      [
        "walk",
        "ed"
      ],
      [
        "stand",
        "ing"
      ],
      [
        "di",
        "ed"
      ],
      [
        "tru",
        "th"
      ],
      [
        "G",
        "et"
      ],
      [
        "K",
        "ey"
      ],
      [
        "S",
        "e"
      ],
      [
        "a",
        "z"
      ],
      [
        "c",
        "our"
      ],
      [
        "c",
        "ity"
      ],
      [
        "e",
        "asy"
      ],
      [
        "f",
        "ast"
      ],
      [
        "f",
        "ather"
      ],
      [
        "h",
        "ot"
      ],
      [
        "k",
        "id"
      ],
      [
        "m",
        "ar"
      ],
      [
        "m",
        "iss"
      ],
      [
        "p",
        "ic"
      ],
      [
        "p",
        "ick"
      ],
      [
        "r",
        "is"
      ],
      [
        "s",
        "l"
      ],
      [
        "t",
        "ried"
      ],
      [
        "t",
        "une"
      ],
      [
        "re",
        "s"
      ],
      [
        "ve",
        "s"
      ],
      [
        "st",
        "er"
      ],
      [
        "we",
        "e"
      ],
      [
        "sh",
        "ore"
      ],
      [
        "ry",
        "body"
      ],
      [
        "some",
        "thin"
      ],
      [
        "by",
        "e"
      ],
      [
        "mo",
        "ther"
      ],
      [
        "fu",
        "ll"
      ],
      [
        "clo",
        "se"
      ],
      [
        "blow",
        "in"
      ],
      [
        "Ro",
        "ll"
      ],
      [
        "chang",
        "e"
      ],
      [
        "ones",
        "ome"
      ],
      [
        "wall",
        "s"
      ],
      [
        "star",
        "s"
      ],
      [
        "!",
        "”"
      ],
      [
        "C",
        "ause"
      ],
      [
        "F",
        "ather"
      ],
      [
        "O",
        "f"
      ],
      [
        "b",
        "it"
      ],
      [
        "h",
        "it"
      ],
      [
        "k",
        "ne"
      ],
      [
        "p",
        "ie"
      ],
      [
        "r",
        "id"
      ],
      [
        "y",
        "eah"
      ],
      [
        "ou",
        "d"
      ],
      [
        "or",
        "y"
      ],
      [
        "be",
        "at"
      ],
      [
        "li",
        "es"
      ],
      [
        "lo",
        "se"
      ],
      [
        "lo",
        "ver"
      ],
      [
        "wh",
        "ich"
      ],
      [
        "co",
        "ve"
      ],
      [
        "el",
        "s"
      ],
      [
        "bo",
        "th"
      ],
      [
        "could",
        "n"
      ],
      [
        "con",
        "t"
      ],
      [
        "Some",
        "one"
      ],
      [
        "com",
        "ing"
      ],
      [
        "try",
        "in"
      ],
      [
        "av",
        "y"
      ],
      [
        "gre",
        "at"
      ],
      [
        "Jo",
        "ey"
      ],
      [
        "N",
        "ever"
      ],
      [
        "P",
        "ut"
      ],
      [
        "T",
        "ime"
      ],
      [
        "W",
        "igg"
      ],
      [
        "a",
        "wn"
      ],
      [
        "b",
        "s"
      ],
      [
        "b",
        "or"
      ],
      [
        "b",
        "right"
      ],
      [
        "c",
        "tor"
      ],
      [
        "d",
        "ir"
      ],
      [
        "e",
        "at"
      ],
      [
        "h",
        "ung"
      ],
      [
        "n",
        "in"
      ],
      [
        "p",
        "ow"
      ],
      [
        "p",
        "ay"
      ],
      [
        "r",
        "ough"
      ],
      [
        "t",
        "ree"
      ],
      [
        "w",
        "omen"
      ],
      [
        "on",
        "s"
      ],
      [
        "ar",
        "a"
      ],
      [
        "wi",
        "fe"
      ],
      [
        "do",
        "llar"
      ],
      [
        "ave",
        "d"
      ],
      [
        "sa",
        "il"
      ],
      [
        "pe",
        "ar"
      ],
      [
        "ion",
        "s"
      ],
      [
        "any",
        "more"
      ],
      [
        "think",
        "in"
      ],
      [
        "vo",
        "ice"
      ],
      [
        "fill",
        "ed"
      ],
      [
        "Wigg",
        "le"
      ],
      [
        "C",
        "h"
      ],
      [
        "D",
        "id"
      ],
      [
        "E",
        "v"
      ],
      [
        "S",
        "ara"
      ],
      [
        "U",
        "n"
      ],
      [
        "W",
        "as"
      ],
      [
        "a",
        "id"
      ],
      [
        "a",
        "ut"
      ],
      [
        "a",
        "pe"
      ],
      [
        "c",
        "ri"
      ],
      [
        "d",
        "es"
      ],
      [
        "f",
        "ine"
      ],
      [
        "i",
        "z"
      ],
      [
        "i",
        "ther"
      ],
      [
        "l",
        "au"
      ],
      [
        "s",
        "at"
      ],
      [
        "s",
        "ur"
      ],
      [
        "an",
        "k"
      ],
      [
        "re",
        "ed"
      ],
      [
        "at",
        "ed"
      ],
      [
        "at",
        "es"
      ],
      [
        "se",
        "n"
      ],
      [
        "ck",
        "ed"
      ],
      [
        "wor",
        "d"
      ],
      [
        "ey",
        "e"
      ],
      [
        "ear",
        "ly"
      ],
      [
        "walk",
        "ing"
      ],
      [
        "fore",
        "ver"
      ],
      [
        "No",
        "thing"
      ],
      [
        "pre",
        "ss"
      ],
      [
        "ask",
        "ed"
      ],
      [
        "arm",
        "s"
      ],
      [
        "jud",
        "ge"
      ],
      [
        "sil",
        "ver"
      ],
      [
        "Joh",
        "n"
      ],
      [
        "T",
        "own"
      ],
      [
        "Y",
        "eah"
      ],
      [
        "n",
        "or"
      ],
      [
        "p",
        "ath"
      ],
      [
        "s",
        "and"
      ],
      [
        "s",
        "ick"
      ],
      [
        "v",
        "is"
      ],
      [
        "v",
        "ill"
      ],
      [
        "to",
        "p"
      ],
      [
        "or",
        "k"
      ],
      [
        "le",
        "ad"
      ],
      [
        "se",
        "nd"
      ],
      [
        "en",
        "ough"
      ],
      [
        "ri",
        "se"
      ],
      [
        "some",
        "times"
      ],
      [
        "To",
        "o"
      ],
      [
        "thr",
        "ow"
      ],
      [
        "che",
        "s"
      ],
      [
        "morn",
        "in"
      ],
      [
        "high",
        "way"
      ],
      [
        "igh",
        "bor"
      ],
      [
        "flow",
        "ers"
      ],
      [
        "child",
        "ren"
      ],
      [
        "Br",
        "own"
      ],
      [
        "Angel",
        "ina"
      ],
      [
        "B",
        "ro"
      ],
      [
        "M",
        "r"
      ],
      [
        "T",
        "we"
      ],
      [
        "U",
        "p"
      ],
      [
        "a",
        "w"
      ],
      [
        "b",
        "ab"
      ],
      [
        "c",
        "ap"
      ],
      [
        "d",
        "ar"
      ],
      [
        "d",
        "le"
      ],
      [
        "d",
        "awn"
      ],
      [
        "f",
        "ish"
      ],
      [
        "f",
        "irst"
      ],
      [
        "h",
        "ide"
      ],
      [
        "l",
        "onesome"
      ],
      [
        "m",
        "ain"
      ],
      [
        "n",
        "ing"
      ],
      [
        "n",
        "um"
      ],
      [
        "p",
        "i"
      ],
      [
        "s",
        "m"
      ],
      [
        "w",
        "ide"
      ],
      [
        "st",
        "ri"
      ],
      [
        "at",
        "er"
      ],
      [
        "or",
        "t"
      ],
      [
        "li",
        "st"
      ],
      [
        "al",
        "f"
      ],
      [
        "fe",
        "ar"
      ],
      [
        "bl",
        "ame"
      ],
      [
        "ho",
        "od"
      ],
      [
        "any",
        "body"
      ],
      [
        "sto",
        "r"
      ],
      [
        "sp",
        "ir"
      ],
      [
        "call",
        "ed"
      ],
      [
        "bre",
        "ath"
      ],
      [
        "Every",
        "thing"
      ],
      [
        "bro",
        "ther"
      ],
      [
        "sho",
        "ot"
      ],
      [
        "que",
        "en"
      ],
      [
        "pu",
        "ll"
      ],
      [
        "Al",
        "ber"
      ],
      [
        "bir",
        "d"
      ],
      [
        "A",
        "m"
      ],
      [
        "O",
        "ut"
      ],
      [
        "P",
        "o"
      ],
      [
        "W",
        "inter"
      ],
      [
        "b",
        "at"
      ],
      [
        "b",
        "ow"
      ],
      [
        "b",
        "and"
      ],
      [
        "d",
        "ance"
      ],
      [
        "i",
        "ze"
      ],
      [
        "k",
        "iss"
      ],
      [
        "n",
        "er"
      ],
      [
        "o",
        "p"
      ],
      [
        "s",
        "up"
      ],
      [
        "he",
        "s"
      ],
      [
        "at",
        "ure"
      ],
      [
        "le",
        "ve"
      ],
      [
        "se",
        "nt"
      ],
      [
        "ed",
        "le"
      ],
      [
        "ac",
        "es"
      ],
      [
        "we",
        "ep"
      ],
      [
        "de",
        "e"
      ],
      [
        "some",
        "day"
      ],
      [
        "tr",
        "ave"
      ],
      [
        "tr",
        "ack"
      ],
      [
        "wor",
        "th"
      ],
      [
        "um",
        "ble"
      ],
      [
        "To",
        "m"
      ],
      [
        "ap",
        "art"
      ],
      [
        "end",
        "s"
      ],
      [
        "bo",
        "x"
      ],
      [
        "ear",
        "th"
      ],
      [
        "ak",
        "in"
      ],
      [
        "car",
        "ry"
      ],
      [
        "roll",
        "ing"
      ],
      [
        "cke",
        "ts"
      ],
      [
        "hur",
        "t"
      ],
      [
        "cra",
        "zy"
      ],
      [
        "Alber",
        "ta"
      ],
      [
        "A",
        "r"
      ],
      [
        "B",
        "u"
      ],
      [
        "B",
        "illy"
      ],
      [
        "C",
        "at"
      ],
      [
        "F",
        "e"
      ],
      [
        "J",
        "im"
      ],
      [
        "S",
        "ing"
      ],
      [
        "S",
        "ee"
      ],
      [
        "Y",
        "ork"
      ],
      [
        "a",
        "li"
      ],
      [
        "c",
        "ried"
      ],
      [
        "g",
        "ent"
      ],
      [
        "j",
        "e"
      ],
      [
        "m",
        "outh"
      ],
      [
        "on",
        "y"
      ],
      [
        "th",
        "ose"
      ],
      [
        "to",
        "ge"
      ],
      [
        "be",
        "aut"
      ],
      [
        "li",
        "e"
      ],
      [
        "li",
        "ving"
      ],
      [
        "en",
        "e"
      ],
      [
        "ut",
        "e"
      ],
      [
        "ne",
        "ighbor"
      ],
      [
        "ch",
        "ance"
      ],
      [
        "out",
        "side"
      ],
      [
        "was",
        "n"
      ],
      [
        "go",
        "es"
      ],
      [
        "sh",
        "ake"
      ],
      [
        "am",
        "p"
      ],
      [
        "love",
        "d"
      ],
      [
        "ant",
        "s"
      ],
      [
        "any",
        "one"
      ],
      [
        "wo",
        "od"
      ],
      [
        "ile",
        "d"
      ],
      [
        "think",
        "ing"
      ],
      [
        "No",
        "body"
      ],
      [
        "On",
        "ly"
      ],
      [
        "again",
        "st"
      ],
      [
        "mer",
        "cy"
      ],
      [
        "may",
        "be"
      ],
      [
        "burn",
        "ing"
      ],
      [
        "cle",
        "ar"
      ],
      [
        "does",
        "n"
      ],
      [
        "tom",
        "orrow"
      ],
      [
        "hor",
        "se"
      ],
      [
        "shad",
        "ows"
      ],
      [
        "Ru",
        "b"
      ],
      [
        "toge",
        "ther"
      ],
      [
        "J",
        "ud"
      ],
      [
        "O",
        "oh"
      ],
      [
        "Q",
        "ue"
      ],
      [
        "S",
        "ad"
      ],
      [
        "T",
        "en"
      ],
      [
        "b",
        "one"
      ],
      [
        "c",
        "ed"
      ],
      [
        "c",
        "orn"
      ],
      [
        "d",
        "anc"
      ],
      [
        "f",
        "a"
      ],
      [
        "h",
        "a"
      ],
      [
        "k",
        "ed"
      ],
      [
        "s",
        "mo"
      ],
      [
        "s",
        "po"
      ],
      [
        "v",
        "il"
      ],
      [
        "in",
        "t"
      ],
      [
        "re",
        "am"
      ],
      [
        "th",
        "ree"
      ],
      [
        "to",
        "day"
      ],
      [
        "be",
        "ing"
      ],
      [
        "nd",
        "er"
      ],
      [
        "wh",
        "is"
      ],
      [
        "can",
        "not"
      ],
      [
        "ch",
        "ain"
      ],
      [
        "do",
        "g"
      ],
      [
        "fe",
        "lt"
      ],
      [
        "are",
        "d"
      ],
      [
        "got",
        "ta"
      ],
      [
        "bl",
        "in"
      ],
      [
        "co",
        "ver"
      ],
      [
        "get",
        "s"
      ],
      [
        "look",
        "s"
      ],
      [
        "ra",
        "il"
      ],
      [
        "Some",
        "times"
      ],
      [
        "bu",
        "ild"
      ],
      [
        "So",
        "on"
      ],
      [
        "lit",
        "ic"
      ],
      [
        "str",
        "ong"
      ],
      [
        "Be",
        "fore"
      ],
      [
        "beg",
        "an"
      ],
      [
        "land",
        "s"
      ],
      [
        "talk",
        "in"
      ],
      [
        "lu",
        "es"
      ],
      [
        "lu",
        "ck"
      ],
      [
        "ash",
        "ing"
      ],
      [
        "emp",
        "ty"
      ],
      [
        "May",
        "be"
      ],
      [
        "mid",
        "night"
      ],
      [
        "cro",
        "ssed"
      ],
      [
        "vill",
        "e"
      ],
      [
        "Twe",
        "edle"
      ],
      [
        "Que",
        "en"
      ],
      [
        "B",
        "lues"
      ],
      [
        "D",
        "ri"
      ],
      [
        "F",
        "ran"
      ],
      [
        "H",
        "er"
      ],
      [
        "T",
        "ry"
      ],
      [
        "c",
        "ast"
      ],
      [
        "f",
        "ate"
      ],
      [
        "g",
        "y"
      ],
      [
        "i",
        "ed"
      ],
      [
        "i",
        "ous"
      ],
      [
        "m",
        "ur"
      ],
      [
        "m",
        "aking"
      ],
      [
        "p",
        "ound"
      ],
      [
        "s",
        "ang"
      ],
      [
        "s",
        "ign"
      ],
      [
        "t",
        "ong"
      ],
      [
        "y",
        "et"
      ],
      [
        "re",
        "w"
      ],
      [
        "se",
        "ll"
      ],
      [
        "se",
        "es"
      ],
      [
        "se",
        "ven"
      ],
      [
        "be",
        "nd"
      ],
      [
        "is",
        "on"
      ],
      [
        "ch",
        "ur"
      ],
      [
        "we",
        "en"
      ],
      [
        "do",
        "ctor"
      ],
      [
        "am",
        "ong"
      ],
      [
        "de",
        "c"
      ],
      [
        "ok",
        "er"
      ],
      [
        "ie",
        "ld"
      ],
      [
        "want",
        "s"
      ],
      [
        "gr",
        "ave"
      ],
      [
        "every",
        "where"
      ],
      [
        "other",
        "s"
      ],
      [
        "dre",
        "ssed"
      ],
      [
        "bu",
        "y"
      ],
      [
        "pr",
        "ote"
      ],
      [
        "fall",
        "ing"
      ],
      [
        "blow",
        "s"
      ],
      [
        "av",
        "in"
      ],
      [
        "name",
        "s"
      ],
      [
        "burn",
        "ed"
      ],
      [
        "Go",
        "od"
      ],
      [
        "Mo",
        "st"
      ],
      [
        "dri",
        "ft"
      ],
      [
        "cle",
        "an"
      ],
      [
        "sin",
        "ce"
      ],
      [
        "hell",
        "o"
      ],
      [
        "Miss",
        "us"
      ],
      [
        "whe",
        "el"
      ],
      [
        "fr",
        "ont"
      ],
      [
        "list",
        "en"
      ],
      [
        "stor",
        "m"
      ],
      [
        "Fran",
        "k"
      ],
      [
        "C",
        "o"
      ],
      [
        "E",
        "ven"
      ],
      [
        "L",
        "ee"
      ],
      [
        "M",
        "agg"
      ],
      [
        "U",
        "nder"
      ],
      [
        "c",
        "ir"
      ],
      [
        "c",
        "ase"
      ],
      [
        "d",
        "u"
      ],
      [
        "d",
        "ust"
      ],
      [
        "e",
        "red"
      ],
      [
        "f",
        "ing"
      ],
      [
        "f",
        "air"
      ],
      [
        "j",
        "ail"
      ],
      [
        "m",
        "ist"
      ],
      [
        "p",
        "ers"
      ],
      [
        "r",
        "ace"
      ],
      [
        "s",
        "w"
      ],
      [
        "s",
        "wi"
      ],
      [
        "s",
        "ink"
      ],
      [
        "s",
        "ix"
      ],
      [
        "t",
        "ure"
      ],
      [
        "v",
        "alley"
      ],
      [
        "he",
        "avy"
      ],
      [
        "ou",
        "ds"
      ],
      [
        "an",
        "im"
      ],
      [
        "to",
        "ry"
      ],
      [
        "ke",
        "nd"
      ],
      [
        "ro",
        "p"
      ],
      [
        "lo",
        "c"
      ],
      [
        "al",
        "t"
      ],
      [
        "al",
        "se"
      ],
      [
        "do",
        "in"
      ],
      [
        "do",
        "gs"
      ],
      [
        "ir",
        "on"
      ],
      [
        "fe",
        "w"
      ],
      [
        "de",
        "vil"
      ],
      [
        "so",
        "ld"
      ],
      [
        "co",
        "at"
      ],
      [
        "ast",
        "er"
      ],
      [
        "um",
        "s"
      ],
      [
        "po",
        "litic"
      ],
      [
        "good",
        "bye"
      ],
      [
        "Some",
        "thing"
      ],
      [
        "bu",
        "lly"
      ],
      [
        "qu",
        "ick"
      ],
      [
        "di",
        "se"
      ],
      [
        "str",
        "u"
      ],
      [
        "went",
        "y"
      ],
      [
        "keep",
        "s"
      ],
      [
        "Be",
        "cause"
      ],
      [
        "av",
        "ing"
      ],
      [
        "fl",
        "at"
      ],
      [
        "ps",
        "y"
      ],
      [
        "hang",
        "in"
      ],
      [
        "anc",
        "es"
      ],
      [
        "step",
        "s"
      ],
      [
        "boy",
        "s"
      ],
      [
        "pa",
        "id"
      ],
      [
        "cke",
        "t"
      ],
      [
        "aught",
        "er"
      ],
      [
        "crow",
        "d"
      ],
      [
        "dist",
        "ance"
      ],
      [
        "kne",
        "es"
      ],
      [
        "lau",
        "gh"
      ],
      [
        "spir",
        "it"
      ],
      [
        "leve",
        "e"
      ],
      [
        "Magg",
        "ie"
      ],
      [
        "B",
        "et"
      ],
      [
        "C",
        "ould"
      ],
      [
        "D",
        "andy"
      ],
      [
        "L",
        "ist"
      ],
      [
        "M",
        "ar"
      ],
      [
        "M",
        "ister"
      ],
      [
        "R",
        "ed"
      ],
      [
        "S",
        "p"
      ],
      [
        "T",
        "il"
      ],
      [
        "a",
        "live"
      ],
      [
        "b",
        "ur"
      ],
      [
        "c",
        "up"
      ],
      [
        "g",
        "al"
      ],
      [
        "g",
        "low"
      ],
      [
        "g",
        "ate"
      ],
      [
        "h",
        "arm"
      ],
      [
        "h",
        "alf"
      ],
      [
        "n",
        "arrow"
      ],
      [
        "p",
        "rom"
      ],
      [
        "r",
        "s"
      ],
      [
        "s",
        "ville"
      ],
      [
        "w",
        "in"
      ],
      [
        "y",
        "ear"
      ],
      [
        "ñ",
        "or"
      ],
      [
        "in",
        "ess"
      ],
      [
        "re",
        "main"
      ],
      [
        "st",
        "age"
      ],
      [
        "le",
        "y"
      ],
      [
        "se",
        "ar"
      ],
      [
        "ke",
        "t"
      ],
      [
        "id",
        "ent"
      ],
      [
        "ri",
        "e"
      ],
      [
        "for",
        "got"
      ],
      [
        "ti",
        "red"
      ],
      [
        "un",
        "k"
      ],
      [
        "un",
        "to"
      ],
      [
        "are",
        "well"
      ],
      [
        "de",
        "st"
      ],
      [
        "He",
        "y"
      ],
      [
        "tr",
        "ail"
      ],
      [
        "alk",
        "in"
      ],
      [
        "get",
        "ting"
      ],
      [
        "ap",
        "pear"
      ],
      [
        "bo",
        "at"
      ],
      [
        "bo",
        "ot"
      ],
      [
        "ame",
        "d"
      ],
      [
        "po",
        "sed"
      ],
      [
        "gr",
        "ace"
      ],
      [
        "con",
        "d"
      ],
      [
        "con",
        "ce"
      ],
      [
        "Some",
        "body"
      ],
      [
        "qu",
        "it"
      ],
      [
        "live",
        "s"
      ],
      [
        "St",
        "re"
      ],
      [
        "flow",
        "er"
      ],
      [
        "tre",
        "at"
      ],
      [
        "start",
        "ed"
      ],
      [
        "trouble",
        "s"
      ],
      [
        "Sh",
        "ine"
      ],
      [
        "Heart",
        "s"
      ],
      [
        "hour",
        "s"
      ],
      [
        "strang",
        "er"
      ],
      [
        "lim",
        "b"
      ],
      [
        "Pe",
        "ople"
      ],
      [
        "seem",
        "s"
      ],
      [
        "wee",
        "kend"
      ],
      [
        "pow",
        "er"
      ],
      [
        "reed",
        "om"
      ],
      [
        "Brown",
        "sville"
      ],
      [
        "bat",
        "tle"
      ],
      [
        "gent",
        "le"
      ],
      [
        "dise",
        "ase"
      ],
      [
        "List",
        "en"
      ],
      [
        "B",
        "ey"
      ],
      [
        "B",
        "low"
      ],
      [
        "H",
        "as"
      ],
      [
        "H",
        "ave"
      ],
      [
        "H",
        "andy"
      ],
      [
        "R",
        "ing"
      ],
      [
        "R",
        "id"
      ],
      [
        "S",
        "u"
      ],
      [
        "W",
        "or"
      ],
      [
        "a",
        "go"
      ],
      [
        "d",
        "ing"
      ],
      [
        "d",
        "if"
      ],
      [
        "f",
        "ro"
      ],
      [
        "f",
        "alse"
      ],
      [
        "h",
        "all"
      ],
      [
        "h",
        "id"
      ],
      [
        "i",
        "a"
      ],
      [
        "i",
        "re"
      ],
      [
        "i",
        "am"
      ],
      [
        "j",
        "u"
      ],
      [
        "o",
        "ce"
      ],
      [
        "r",
        "ag"
      ],
      [
        "s",
        "of"
      ],
      [
        "t",
        "ear"
      ],
      [
        "w",
        "er"
      ],
      [
        "he",
        "at"
      ],
      [
        "me",
        "s"
      ],
      [
        "st",
        "ick"
      ],
      [
        "or",
        "ry"
      ],
      [
        "it",
        "ar"
      ],
      [
        "li",
        "ft"
      ],
      [
        "ad",
        "y"
      ],
      [
        "ri",
        "st"
      ],
      [
        "ri",
        "es"
      ],
      [
        "wh",
        "ist"
      ],
      [
        "for",
        "d"
      ],
      [
        "ust",
        "s"
      ],
      [
        "ti",
        "e"
      ],
      [
        "ind",
        "e"
      ],
      [
        "fe",
        "ed"
      ],
      [
        "de",
        "ar"
      ],
      [
        "de",
        "al"
      ],
      [
        "bl",
        "ing"
      ],
      [
        "tr",
        "ust"
      ],
      [
        "wor",
        "ry"
      ],
      [
        "ap",
        "ped"
      ],
      [
        "nt",
        "y"
      ],
      [
        "In",
        "to"
      ],
      [
        "walk",
        "s"
      ],
      [
        "ra",
        "ise"
      ],
      [
        "make",
        "s"
      ],
      [
        "con",
        "f"
      ],
      [
        "dre",
        "ss"
      ],
      [
        "bu",
        "ll"
      ],
      [
        "pr",
        "ide"
      ],
      [
        "live",
        "d"
      ],
      [
        "St",
        "and"
      ],
      [
        "St",
        "ay"
      ],
      [
        "Th",
        "ough"
      ],
      [
        "Th",
        "rough"
      ],
      [
        "stre",
        "ng"
      ],
      [
        "far",
        "m"
      ],
      [
        "su",
        "it"
      ],
      [
        "wait",
        "in"
      ],
      [
        "tor",
        "n"
      ],
      [
        "tre",
        "es"
      ],
      [
        "thought",
        "s"
      ],
      [
        "cl",
        "ouds"
      ],
      [
        "pri",
        "ce"
      ],
      [
        "Bro",
        "ken"
      ],
      [
        "Fe",
        "el"
      ],
      [
        "corn",
        "er"
      ],
      [
        "prote",
        "ct"
      ],
      [
        "loc",
        "usts"
      ],
      [
        "sear",
        "ch"
      ],
      [
        "Stre",
        "et"
      ],
      [
        "Bey",
        "ond"
      ],
      [
        "A",
        "h"
      ],
      [
        "B",
        "ring"
      ],
      [
        "D",
        "ay"
      ],
      [
        "D",
        "es"
      ],
      [
        "J",
        "oker"
      ],
      [
        "Q",
        "u"
      ],
      [
        "T",
        "wo"
      ],
      [
        "Y",
        "a"
      ],
      [
        "b",
        "read"
      ],
      [
        "c",
        "ent"
      ],
      [
        "d",
        "am"
      ],
      [
        "d",
        "ra"
      ],
      [
        "f",
        "ield"
      ],
      [
        "h",
        "u"
      ],
      [
        "m",
        "a"
      ],
      [
        "m",
        "is"
      ],
      [
        "m",
        "ad"
      ],
      [
        "m",
        "ag"
      ],
      [
        "n",
        "ed"
      ],
      [
        "p",
        "y"
      ],
      [
        "p",
        "lo"
      ],
      [
        "s",
        "now"
      ],
      [
        "t",
        "able"
      ],
      [
        "y",
        "ell"
      ],
      [
        "ve",
        "d"
      ],
      [
        "or",
        "r"
      ],
      [
        "be",
        "y"
      ],
      [
        "be",
        "cause"
      ],
      [
        "ro",
        "l"
      ],
      [
        "ri",
        "can"
      ],
      [
        "et",
        "er"
      ],
      [
        "de",
        "ser"
      ],
      [
        "ce",
        "ive"
      ],
      [
        "ce",
        "pt"
      ],
      [
        "ep",
        "t"
      ],
      [
        "any",
        "way"
      ],
      [
        "gr",
        "ow"
      ],
      [
        "stand",
        "in"
      ],
      [
        "every",
        "body"
      ],
      [
        "sto",
        "ry"
      ],
      [
        "Some",
        "day"
      ],
      [
        "give",
        "n"
      ],
      [
        "wind",
        "s"
      ],
      [
        "play",
        "ing"
      ],
      [
        "even",
        "ing"
      ],
      [
        "su",
        "ch"
      ],
      [
        "car",
        "let"
      ],
      [
        "cr",
        "u"
      ],
      [
        "talk",
        "ing"
      ],
      [
        "bet",
        "ween"
      ],
      [
        "lu",
        "de"
      ],
      [
        "la",
        "id"
      ],
      [
        "dri",
        "ve"
      ],
      [
        "est",
        "er"
      ],
      [
        "ign",
        "ity"
      ],
      [
        "fin",
        "ally"
      ],
      [
        "stu",
        "ck"
      ],
      [
        "bot",
        "tle"
      ],
      [
        "bot",
        "tom"
      ],
      [
        "pic",
        "ture"
      ],
      [
        "bab",
        "ies"
      ],
      [
        "Winter",
        "lude"
      ],
      [
        "Cat",
        "fish"
      ],
      [
        "fa",
        "ith"
      ],
      [
        "smo",
        "ke"
      ],
      [
        "chur",
        "ch"
      ],
      [
        "Frank",
        "ie"
      ],
      [
        "oce",
        "an"
      ],
      [
        "sof",
        "t"
      ],
      [
        "Joker",
        "man"
      ],
      [
        "'",
        ","
      ],
      [
        "A",
        "bout"
      ],
      [
        "C",
        "om"
      ],
      [
        "C",
        "ept"
      ],
      [
        "J",
        "es"
      ],
      [
        "L",
        "ou"
      ],
      [
        "L",
        "it"
      ],
      [
        "W",
        "o"
      ],
      [
        "f",
        "ut"
      ],
      [
        "f",
        "ive"
      ],
      [
        "h",
        "und"
      ],
      [
        "i",
        "ver"
      ],
      [
        "i",
        "ly"
      ],
      [
        "i",
        "ble"
      ],
      [
        "l",
        "one"
      ],
      [
        "m",
        "it"
      ],
      [
        "n",
        "ce"
      ],
      [
        "n",
        "ic"
      ],
      [
        "p",
        "ing"
      ],
      [
        "s",
        "li"
      ],
      [
        "s",
        "lip"
      ],
      [
        "t",
        "wenty"
      ],
      [
        "v",
        "ie"
      ],
      [
        "th",
        "ie"
      ],
      [
        "st",
        "rip"
      ],
      [
        "se",
        "cond"
      ],
      [
        "of",
        "fe"
      ],
      [
        "ad",
        "dy"
      ],
      [
        "ac",
        "her"
      ],
      [
        "for",
        "m"
      ],
      [
        "ch",
        "air"
      ],
      [
        "now",
        "here"
      ],
      [
        "ti",
        "ght"
      ],
      [
        "un",
        "til"
      ],
      [
        "with",
        "in"
      ],
      [
        "pe",
        "ct"
      ],
      [
        "ra",
        "id"
      ],
      [
        "gr",
        "and"
      ],
      [
        "take",
        "s"
      ],
      [
        "com",
        "p"
      ],
      [
        "turn",
        "ing"
      ],
      [
        "air",
        "s"
      ],
      [
        "Where",
        "ver"
      ],
      [
        "mem",
        "ory"
      ],
      [
        "clo",
        "ser"
      ],
      [
        "spe",
        "ci"
      ],
      [
        "run",
        "nin"
      ],
      [
        "gg",
        "y"
      ],
      [
        "ev",
        "il"
      ],
      [
        "ru",
        "les"
      ],
      [
        "leave",
        "s"
      ],
      [
        "Tr",
        "ouble"
      ],
      [
        "strang",
        "e"
      ],
      [
        "cra",
        "w"
      ],
      [
        "twi",
        "st"
      ],
      [
        "twi",
        "ce"
      ],
      [
        "gam",
        "ble"
      ],
      [
        "bus",
        "iness"
      ],
      [
        "dir",
        "t"
      ],
      [
        "hung",
        "ry"
      ],
      [
        "sat",
        "is"
      ],
      [
        "sen",
        "se"
      ],
      [
        "num",
        "ber"
      ],
      [
        "sup",
        "posed"
      ],
      [
        "Tom",
        "orrow"
      ],
      [
        "neighbor",
        "hood"
      ],
      [
        "Dri",
        "ft"
      ],
      [
        "hund",
        "red"
      ],
      [
        "A",
        "me"
      ],
      [
        "B",
        "ir"
      ],
      [
        "B",
        "ig"
      ],
      [
        "D",
        "u"
      ],
      [
        "E",
        "ver"
      ],
      [
        "E",
        "ast"
      ],
      [
        "F",
        "o"
      ],
      [
        "G",
        "u"
      ],
      [
        "H",
        "ad"
      ],
      [
        "H",
        "im"
      ],
      [
        "J",
        "ane"
      ],
      [
        "K",
        "ing"
      ],
      [
        "M",
        "emp"
      ],
      [
        "S",
        "aid"
      ],
      [
        "S",
        "carlet"
      ],
      [
        "W",
        "ay"
      ],
      [
        "c",
        "es"
      ],
      [
        "d",
        "ignity"
      ],
      [
        "e",
        "k"
      ],
      [
        "f",
        "at"
      ],
      [
        "f",
        "ac"
      ],
      [
        "f",
        "reedom"
      ],
      [
        "j",
        "ump"
      ],
      [
        "l",
        "ter"
      ],
      [
        "n",
        "one"
      ],
      [
        "r",
        "at"
      ],
      [
        "r",
        "ay"
      ],
      [
        "s",
        "y"
      ],
      [
        "s",
        "me"
      ],
      [
        "s",
        "ight"
      ],
      [
        "s",
        "orrow"
      ],
      [
        "s",
        "ister"
      ],
      [
        "v",
        "ic"
      ],
      [
        "w",
        "ast"
      ],
      [
        "x",
        "ford"
      ],
      [
        "y",
        "e"
      ],
      [
        "he",
        "t"
      ],
      [
        "re",
        "nt"
      ],
      [
        "be",
        "hold"
      ],
      [
        "ad",
        "ise"
      ],
      [
        "ro",
        "de"
      ],
      [
        "lo",
        "vin"
      ],
      [
        "your",
        "s"
      ],
      [
        "for",
        "give"
      ],
      [
        "ch",
        "ar"
      ],
      [
        "no",
        "se"
      ],
      [
        "ti",
        "ed"
      ],
      [
        "ard",
        "en"
      ],
      [
        "il",
        "k"
      ],
      [
        "ang",
        "er"
      ],
      [
        "ang",
        "el"
      ],
      [
        "ple",
        "nty"
      ],
      [
        "br",
        "and"
      ],
      [
        "gr",
        "ab"
      ],
      [
        "heart",
        "s"
      ],
      [
        "With",
        "out"
      ],
      [
        "sto",
        "le"
      ],
      [
        "mu",
        "d"
      ],
      [
        "qu",
        "ite"
      ],
      [
        "bre",
        "a"
      ],
      [
        "ex",
        "plo"
      ],
      [
        "blow",
        "ing"
      ],
      [
        "fi",
        "ed"
      ],
      [
        "te",
        "red"
      ],
      [
        "ation",
        "s"
      ],
      [
        "than",
        "k"
      ],
      [
        "spe",
        "nd"
      ],
      [
        "wr",
        "it"
      ],
      [
        "bro",
        "ke"
      ],
      [
        "blo",
        "ck"
      ],
      [
        "Ro",
        "ck"
      ],
      [
        "wait",
        "ing"
      ],
      [
        "wait",
        "ed"
      ],
      [
        "af",
        "raid"
      ],
      [
        "roll",
        "in"
      ],
      [
        "burn",
        "in"
      ],
      [
        "beli",
        "ev"
      ],
      [
        "Go",
        "in"
      ],
      [
        "Mo",
        "ore"
      ],
      [
        "dark",
        "ness"
      ],
      [
        "hap",
        "py"
      ],
      [
        "pin",
        "ess"
      ],
      [
        "Look",
        "in"
      ],
      [
        "pray",
        "er"
      ],
      [
        "slow",
        "ly"
      ],
      [
        "Me",
        "et"
      ],
      [
        "Tr",
        "ust"
      ],
      [
        "cat",
        "ch"
      ],
      [
        "Bo",
        "y"
      ],
      [
        "shad",
        "ow"
      ],
      [
        "stu",
        "ff"
      ],
      [
        "gam",
        "blin"
      ],
      [
        "shin",
        "ing"
      ],
      [
        "Se",
        "en"
      ],
      [
        "cour",
        "se"
      ],
      [
        "iz",
        "on"
      ],
      [
        "Jud",
        "as"
      ],
      [
        "cir",
        "c"
      ],
      [
        "sold",
        "i"
      ],
      [
        "Rid",
        "er"
      ],
      [
        "dif",
        "fe"
      ],
      [
        "whist",
        "le"
      ],
      [
        "Jes",
        "us"
      ],
      [
        "Lit",
        "tle"
      ],
      [
        "fut",
        "ure"
      ],
      [
        "Drift",
        "in"
      ],
      [
        "Memp",
        "his"
      ],
      [
        "sme",
        "ll"
      ],
      [
        "A",
        "no"
      ],
      [
        "N",
        "ight"
      ],
      [
        "O",
        "ld"
      ],
      [
        "O",
        "pen"
      ],
      [
        "P",
        "re"
      ],
      [
        "R",
        "ow"
      ],
      [
        "S",
        "at"
      ],
      [
        "T",
        "urn"
      ],
      [
        "Y",
        "e"
      ],
      [
        "b",
        "ree"
      ],
      [
        "b",
        "ark"
      ],
      [
        "b",
        "ones"
      ],
      [
        "c",
        "ow"
      ],
      [
        "c",
        "lu"
      ],
      [
        "c",
        "ards"
      ],
      [
        "d",
        "rop"
      ],
      [
        "g",
        "ut"
      ],
      [
        "g",
        "od"
      ],
      [
        "g",
        "ain"
      ],
      [
        "g",
        "arden"
      ],
      [
        "h",
        "ound"
      ],
      [
        "h",
        "um"
      ],
      [
        "i",
        "sed"
      ],
      [
        "k",
        "in"
      ],
      [
        "l",
        "ater"
      ],
      [
        "m",
        "ilk"
      ],
      [
        "n",
        "ice"
      ],
      [
        "o",
        "st"
      ],
      [
        "p",
        "ill"
      ],
      [
        "p",
        "hi"
      ],
      [
        "s",
        "ile"
      ],
      [
        "s",
        "im"
      ],
      [
        "t",
        "end"
      ],
      [
        "v",
        "io"
      ],
      [
        "w",
        "and"
      ],
      [
        "w",
        "ine"
      ],
      [
        "in",
        "y"
      ],
      [
        "re",
        "ach"
      ],
      [
        "me",
        "ant"
      ],
      [
        "le",
        "an"
      ],
      [
        "se",
        "cre"
      ],
      [
        "it",
        "ic"
      ],
      [
        "be",
        "side"
      ],
      [
        "gh",
        "ost"
      ],
      [
        "as",
        "leep"
      ],
      [
        "ro",
        "y"
      ],
      [
        "ro",
        "ck"
      ],
      [
        "es",
        "ne"
      ],
      [
        "lo",
        "ad"
      ],
      [
        "wi",
        "se"
      ],
      [
        "ne",
        "ck"
      ],
      [
        "et",
        "s"
      ],
      [
        "et",
        "y"
      ],
      [
        "we",
        "l"
      ],
      [
        "ti",
        "ll"
      ],
      [
        "do",
        "m"
      ],
      [
        "un",
        "known"
      ],
      [
        "co",
        "l"
      ],
      [
        "tr",
        "ay"
      ],
      [
        "ide",
        "a"
      ],
      [
        "she",
        "lter"
      ],
      [
        "ho",
        "le"
      ],
      [
        "wor",
        "se"
      ],
      [
        "get",
        "tin"
      ],
      [
        "ple",
        "d"
      ],
      [
        "if",
        "ul"
      ],
      [
        "ame",
        "s"
      ],
      [
        "In",
        "side"
      ],
      [
        "po",
        "ckets"
      ],
      [
        "ic",
        "on"
      ],
      [
        "ble",
        "ed"
      ],
      [
        "our",
        "ine"
      ],
      [
        "light",
        "s"
      ],
      [
        "feel",
        "in"
      ],
      [
        "feel",
        "ing"
      ],
      [
        "sto",
        "od"
      ],
      [
        "No",
        "thin"
      ],
      [
        "road",
        "s"
      ],
      [
        "qu",
        "esne"
      ],
      [
        "di",
        "am"
      ],
      [
        "dr",
        "own"
      ],
      [
        "Th",
        "ree"
      ],
      [
        "ex",
        "plain"
      ],
      [
        "stre",
        "am"
      ],
      [
        "Li",
        "fe"
      ],
      [
        "wat",
        "ched"
      ],
      [
        "su",
        "ck"
      ],
      [
        "gu",
        "itar"
      ],
      [
        "te",
        "en"
      ],
      [
        "An",
        "y"
      ],
      [
        "run",
        "ning"
      ],
      [
        "Ro",
        "ad"
      ],
      [
        "name",
        "d"
      ],
      [
        "hang",
        "ing"
      ],
      [
        "break",
        "ing"
      ],
      [
        "moon",
        "light"
      ],
      [
        "rain",
        "in"
      ],
      [
        "hap",
        "piness"
      ],
      [
        "dis",
        "appear"
      ],
      [
        "Say",
        "ing"
      ],
      [
        "tom",
        "b"
      ],
      [
        "Sh",
        "ake"
      ],
      [
        "ff",
        "er"
      ],
      [
        "Whi",
        "ch"
      ],
      [
        "tou",
        "ched"
      ],
      [
        "knock",
        "in"
      ],
      [
        "hor",
        "izon"
      ],
      [
        "foot",
        "steps"
      ],
      [
        "amb",
        "ourine"
      ],
      [
        "cont",
        "rol"
      ],
      [
        "dir",
        "ty"
      ],
      [
        "Ch",
        "rist"
      ],
      [
        "umble",
        "d"
      ],
      [
        "Ar",
        "ab"
      ],
      [
        "Rub",
        "icon"
      ],
      [
        "anim",
        "als"
      ],
      [
        "politic",
        "al"
      ],
      [
        "conce",
        "it"
      ],
      [
        "Blow",
        "in"
      ],
      [
        "inde",
        "ed"
      ],
      [
        "bey",
        "ond"
      ],
      [
        "Du",
        "quesne"
      ],
      [
        "Ano",
        "ther"
      ],
      [
        "C",
        "ar"
      ],
      [
        "C",
        "ame"
      ],
      [
        "C",
        "orr"
      ],
      [
        "D",
        "um"
      ],
      [
        "D",
        "ee"
      ],
      [
        "E",
        "den"
      ],
      [
        "H",
        "ome"
      ],
      [
        "H",
        "ell"
      ],
      [
        "K",
        "e"
      ],
      [
        "M",
        "ary"
      ],
      [
        "O",
        "xford"
      ],
      [
        "P",
        "at"
      ],
      [
        "T",
        "ambourine"
      ],
      [
        "W",
        "ait"
      ],
      [
        "b",
        "ri"
      ],
      [
        "b",
        "are"
      ],
      [
        "b",
        "ile"
      ],
      [
        "c",
        "er"
      ],
      [
        "c",
        "ab"
      ],
      [
        "c",
        "ape"
      ],
      [
        "f",
        "ter"
      ],
      [
        "g",
        "ree"
      ],
      [
        "h",
        "ar"
      ],
      [
        "k",
        "ick"
      ],
      [
        "m",
        "ome"
      ],
      [
        "m",
        "ir"
      ],
      [
        "o",
        "b"
      ],
      [
        "p",
        "al"
      ],
      [
        "p",
        "ur"
      ],
      [
        "p",
        "ack"
      ],
      [
        "p",
        "ure"
      ],
      [
        "r",
        "hy"
      ],
      [
        "s",
        "ac"
      ],
      [
        "s",
        "al"
      ],
      [
        "s",
        "orry"
      ],
      [
        "t",
        "aking"
      ],
      [
        "u",
        "ff"
      ],
      [
        "v",
        "ain"
      ],
      [
        "w",
        "ound"
      ],
      [
        "w",
        "ink"
      ],
      [
        "w",
        "arm"
      ],
      [
        "re",
        "fle"
      ],
      [
        "ll",
        "ing"
      ],
      [
        "th",
        "rew"
      ],
      [
        "at",
        "ch"
      ],
      [
        "se",
        "ñor"
      ],
      [
        "it",
        "a"
      ],
      [
        "be",
        "neath"
      ],
      [
        "ro",
        "b"
      ],
      [
        "ro",
        "se"
      ],
      [
        "al",
        "most"
      ],
      [
        "one",
        "st"
      ],
      [
        "ne",
        "ither"
      ],
      [
        "ch",
        "ime"
      ],
      [
        "we",
        "ather"
      ],
      [
        "ti",
        "cket"
      ],
      [
        "sh",
        "out"
      ],
      [
        "sh",
        "ame"
      ],
      [
        "do",
        "ing"
      ],
      [
        "ave",
        "s"
      ],
      [
        "ave",
        "y"
      ],
      [
        "ry",
        "thing"
      ],
      [
        "de",
        "gree"
      ],
      [
        "He",
        "ard"
      ],
      [
        "art",
        "er"
      ],
      [
        "hat",
        "e"
      ],
      [
        "pl",
        "an"
      ],
      [
        "say",
        "in"
      ],
      [
        "ang",
        "els"
      ],
      [
        "ter",
        "s"
      ],
      [
        "him",
        "self"
      ],
      [
        "any",
        "where"
      ],
      [
        "br",
        "own"
      ],
      [
        "gr",
        "ass"
      ],
      [
        "fo",
        "ld"
      ],
      [
        "com",
        "plain"
      ],
      [
        "head",
        "s"
      ],
      [
        "sp",
        "ark"
      ],
      [
        "new",
        "s"
      ],
      [
        "sk",
        "ies"
      ],
      [
        "pr",
        "in"
      ],
      [
        "door",
        "way"
      ],
      [
        "call",
        "in"
      ],
      [
        "fu",
        "lly"
      ],
      [
        "Th",
        "row"
      ],
      [
        "clo",
        "ck"
      ],
      [
        "fall",
        "in"
      ],
      [
        "ex",
        "pect"
      ],
      [
        "ord",
        "er"
      ],
      [
        "su",
        "gar"
      ],
      [
        "su",
        "ffer"
      ],
      [
        "car",
        "s"
      ],
      [
        "cr",
        "itic"
      ],
      [
        "might",
        "y"
      ],
      [
        "girl",
        "s"
      ],
      [
        "sc",
        "ream"
      ],
      [
        "sleep",
        "ing"
      ],
      [
        "step",
        "ped"
      ],
      [
        "Say",
        "in"
      ],
      [
        "lin",
        "es"
      ],
      [
        "pain",
        "t"
      ],
      [
        "Bl",
        "ue"
      ],
      [
        "pa",
        "wn"
      ],
      [
        "gold",
        "en"
      ],
      [
        "jo",
        "b"
      ],
      [
        "jo",
        "y"
      ],
      [
        "jud",
        "g"
      ],
      [
        "min",
        "ute"
      ],
      [
        "mid",
        "dle"
      ],
      [
        "pas",
        "sed"
      ],
      [
        "pas",
        "ses"
      ],
      [
        "happen",
        "ed"
      ],
      [
        "learn",
        "ed"
      ],
      [
        "mountain",
        "s"
      ],
      [
        "fun",
        "ny"
      ],
      [
        "fle",
        "sh"
      ],
      [
        "pick",
        "ed"
      ],
      [
        "ris",
        "in"
      ],
      [
        "pie",
        "ce"
      ],
      [
        "rid",
        "ing"
      ],
      [
        "cri",
        "me"
      ],
      [
        "stri",
        "fe"
      ],
      [
        "beaut",
        "iful"
      ],
      [
        "Sad",
        "ie"
      ],
      [
        "danc",
        "ing"
      ],
      [
        "gy",
        "psy"
      ],
      [
        "mur",
        "der"
      ],
      [
        "tong",
        "ue"
      ],
      [
        "pers",
        "on"
      ],
      [
        "alt",
        "ar"
      ],
      [
        "boot",
        "s"
      ],
      [
        "Wor",
        "ld"
      ],
      [
        "ester",
        "day"
      ],
      [
        "speci",
        "al"
      ],
      [
        "brea",
        "the"
      ],
      [
        "Corr",
        "ina"
      ],
      [
        "Ke",
        "ep"
      ],
      [
        "mome",
        "nt"
      ],
      [
        "A",
        "d"
      ],
      [
        "B",
        "ay"
      ],
      [
        "D",
        "ark"
      ],
      [
        "D",
        "avey"
      ],
      [
        "F",
        "irst"
      ],
      [
        "F",
        "arewell"
      ],
      [
        "G",
        "ive"
      ],
      [
        "G",
        "old"
      ],
      [
        "G",
        "irl"
      ],
      [
        "K",
        "ings"
      ],
      [
        "K",
        "nock"
      ],
      [
        "M",
        "u"
      ],
      [
        "M",
        "ake"
      ],
      [
        "M",
        "other"
      ],
      [
        "M",
        "ont"
      ],
      [
        "R",
        "ight"
      ],
      [
        "S",
        "tr"
      ],
      [
        "S",
        "aved"
      ],
      [
        "T",
        "alkin"
      ],
      [
        "a",
        "sed"
      ],
      [
        "b",
        "t"
      ],
      [
        "b",
        "ust"
      ],
      [
        "b",
        "ash"
      ],
      [
        "c",
        "a"
      ],
      [
        "c",
        "aught"
      ],
      [
        "c",
        "limb"
      ],
      [
        "d",
        "in"
      ],
      [
        "d",
        "ry"
      ],
      [
        "d",
        "ouble"
      ],
      [
        "d",
        "aughter"
      ],
      [
        "e",
        "ast"
      ],
      [
        "f",
        "am"
      ],
      [
        "f",
        "ail"
      ],
      [
        "f",
        "act"
      ],
      [
        "g",
        "her"
      ],
      [
        "i",
        "et"
      ],
      [
        "i",
        "fe"
      ],
      [
        "i",
        "ent"
      ],
      [
        "i",
        "ence"
      ],
      [
        "k",
        "y"
      ],
      [
        "l",
        "ord"
      ],
      [
        "l",
        "ves"
      ],
      [
        "l",
        "oud"
      ],
      [
        "m",
        "or"
      ],
      [
        "m",
        "as"
      ],
      [
        "m",
        "us"
      ],
      [
        "m",
        "akin"
      ],
      [
        "n",
        "ature"
      ],
      [
        "o",
        "oh"
      ],
      [
        "p",
        "at"
      ],
      [
        "p",
        "air"
      ],
      [
        "p",
        "ity"
      ],
      [
        "r",
        "in"
      ],
      [
        "r",
        "ad"
      ],
      [
        "r",
        "ang"
      ],
      [
        "r",
        "um"
      ],
      [
        "t",
        "ail"
      ],
      [
        "w",
        "is"
      ],
      [
        "w",
        "us"
      ],
      [
        "the",
        "art"
      ],
      [
        "an",
        "go"
      ],
      [
        "on",
        "ed"
      ],
      [
        "th",
        "ir"
      ],
      [
        "st",
        "airs"
      ],
      [
        "ow",
        "ed"
      ],
      [
        "se",
        "at"
      ],
      [
        "ed",
        "ge"
      ],
      [
        "er",
        "ness"
      ],
      [
        "ke",
        "pt"
      ],
      [
        "ro",
        "am"
      ],
      [
        "my",
        "ster"
      ],
      [
        "id",
        "ge"
      ],
      [
        "ac",
        "hed"
      ],
      [
        "wi",
        "re"
      ],
      [
        "for",
        "ty"
      ],
      [
        "out",
        "a"
      ],
      [
        "we",
        "ary"
      ],
      [
        "ir",
        "t"
      ],
      [
        "de",
        "red"
      ],
      [
        "He",
        "re"
      ],
      [
        "bl",
        "an"
      ],
      [
        "co",
        "ol"
      ],
      [
        "see",
        "med"
      ],
      [
        "ho",
        "p"
      ],
      [
        "ho",
        "bo"
      ],
      [
        "ang",
        "led"
      ],
      [
        "bo",
        "ther"
      ],
      [
        "night",
        "s"
      ],
      [
        "po",
        "in"
      ],
      [
        "po",
        "int"
      ],
      [
        "po",
        "ison"
      ],
      [
        "ic",
        "es"
      ],
      [
        "wo",
        "ke"
      ],
      [
        "br",
        "ought"
      ],
      [
        "tell",
        "ing"
      ],
      [
        "und",
        "own"
      ],
      [
        "take",
        "n"
      ],
      [
        "sp",
        "ied"
      ],
      [
        "im",
        "m"
      ],
      [
        "wind",
        "ows"
      ],
      [
        "bu",
        "ry"
      ],
      [
        "bu",
        "ried"
      ],
      [
        "play",
        "in"
      ],
      [
        "play",
        "ed"
      ],
      [
        "What",
        "ever"
      ],
      [
        "call",
        "s"
      ],
      [
        "di",
        "me"
      ],
      [
        "mem",
        "or"
      ],
      [
        "fu",
        "se"
      ],
      [
        "On",
        "ce"
      ],
      [
        "Th",
        "ink"
      ],
      [
        "ol",
        "ation"
      ],
      [
        "ex",
        "act"
      ],
      [
        "Li",
        "ly"
      ],
      [
        "wat",
        "ers"
      ],
      [
        "Who",
        "se"
      ],
      [
        "sing",
        "in"
      ],
      [
        "beg",
        "in"
      ],
      [
        "swe",
        "ar"
      ],
      [
        "ud",
        "es"
      ],
      [
        "wr",
        "ite"
      ],
      [
        "cr",
        "own"
      ],
      [
        "cr",
        "ack"
      ],
      [
        "Ro",
        "man"
      ],
      [
        "fl",
        "ashing"
      ],
      [
        "ta",
        "le"
      ],
      [
        "sc",
        "ene"
      ],
      [
        "kill",
        "er"
      ],
      [
        "Mo",
        "bile"
      ],
      [
        "sit",
        "tin"
      ],
      [
        "tre",
        "m"
      ],
      [
        "dy",
        "ing"
      ],
      [
        "ans",
        "wer"
      ],
      [
        "pret",
        "end"
      ],
      [
        "soul",
        "s"
      ],
      [
        "tru",
        "ck"
      ],
      [
        "ste",
        "al"
      ],
      [
        "ci",
        "ous"
      ],
      [
        "gun",
        "s"
      ],
      [
        "Re",
        "member"
      ],
      [
        "Pe",
        "ggy"
      ],
      [
        "mon",
        "th"
      ],
      [
        "gl",
        "ass"
      ],
      [
        "ph",
        "one"
      ],
      [
        "wear",
        "ing"
      ],
      [
        "par",
        "adise"
      ],
      [
        "press",
        "ing"
      ],
      [
        "Po",
        "or"
      ],
      [
        "Jim",
        "my"
      ],
      [
        "beaut",
        "y"
      ],
      [
        "Under",
        "neath"
      ],
      [
        "rie",
        "f"
      ],
      [
        "forgot",
        "ten"
      ],
      [
        "dest",
        "roy"
      ],
      [
        "Des",
        "olation"
      ],
      [
        "deser",
        "t"
      ],
      [
        "thie",
        "f"
      ],
      [
        "offe",
        "e"
      ],
      [
        "satis",
        "fied"
      ],
      [
        "diffe",
        "rent"
      ],
      [
        "Sat",
        "an"
      ],
      [
        "bree",
        "ze"
      ],
      [
        "mir",
        "r"
      ],
      [
        "exact",
        "ly"
      ],
      [
        "G",
        "re"
      ],
      [
        "G",
        "ates"
      ],
      [
        "I",
        "di"
      ],
      [
        "J",
        "ones"
      ],
      [
        "L",
        "ay"
      ],
      [
        "L",
        "ong"
      ],
      [
        "L",
        "ast"
      ],
      [
        "L",
        "ady"
      ],
      [
        "M",
        "a"
      ],
      [
        "M",
        "ore"
      ],
      [
        "P",
        "ri"
      ],
      [
        "R",
        "ain"
      ],
      [
        "S",
        "an"
      ],
      [
        "S",
        "il"
      ],
      [
        "T",
        "on"
      ],
      [
        "W",
        "ing"
      ],
      [
        "W",
        "ar"
      ],
      [
        "W",
        "alk"
      ],
      [
        "W",
        "ent"
      ],
      [
        "W",
        "atch"
      ],
      [
        "Y",
        "er"
      ],
      [
        "a",
        "head"
      ],
      [
        "a",
        "while"
      ],
      [
        "c",
        "hen"
      ],
      [
        "c",
        "her"
      ],
      [
        "c",
        "offee"
      ],
      [
        "d",
        "ou"
      ],
      [
        "d",
        "are"
      ],
      [
        "e",
        "theart"
      ],
      [
        "f",
        "y"
      ],
      [
        "f",
        "it"
      ],
      [
        "f",
        "if"
      ],
      [
        "g",
        "a"
      ],
      [
        "g",
        "ing"
      ],
      [
        "g",
        "er"
      ],
      [
        "g",
        "li"
      ],
      [
        "g",
        "az"
      ],
      [
        "g",
        "ates"
      ],
      [
        "h",
        "on"
      ],
      [
        "h",
        "un"
      ],
      [
        "h",
        "orn"
      ],
      [
        "h",
        "onest"
      ],
      [
        "i",
        "v"
      ],
      [
        "i",
        "ps"
      ],
      [
        "k",
        "is"
      ],
      [
        "k",
        "ings"
      ],
      [
        "l",
        "amb"
      ],
      [
        "m",
        "i"
      ],
      [
        "m",
        "and"
      ],
      [
        "n",
        "at"
      ],
      [
        "p",
        "ig"
      ],
      [
        "p",
        "ony"
      ],
      [
        "s",
        "ave"
      ],
      [
        "s",
        "na"
      ],
      [
        "s",
        "pl"
      ],
      [
        "s",
        "qu"
      ],
      [
        "s",
        "cho"
      ],
      [
        "s",
        "aved"
      ],
      [
        "t",
        "em"
      ],
      [
        "u",
        "ll"
      ],
      [
        "v",
        "ive"
      ],
      [
        "v",
        "ation"
      ],
      [
        "w",
        "ing"
      ],
      [
        "w",
        "ag"
      ],
      [
        "w",
        "ard"
      ],
      [
        "w",
        "arn"
      ],
      [
        "y",
        "ard"
      ],
      [
        "he",
        "al"
      ],
      [
        "in",
        "no"
      ],
      [
        "re",
        "l"
      ],
      [
        "re",
        "mind"
      ],
      [
        "me",
        "lo"
      ],
      [
        "th",
        "under"
      ],
      [
        "st",
        "y"
      ],
      [
        "at",
        "ing"
      ],
      [
        "at",
        "tered"
      ],
      [
        "or",
        "g"
      ],
      [
        "ar",
        "ise"
      ],
      [
        "le",
        "ne"
      ],
      [
        "it",
        "chen"
      ],
      [
        "is",
        "n"
      ],
      [
        "as",
        "ses"
      ],
      [
        "li",
        "c"
      ],
      [
        "li",
        "ps"
      ],
      [
        "ad",
        "v"
      ],
      [
        "ad",
        "ing"
      ],
      [
        "id",
        "a"
      ],
      [
        "al",
        "y"
      ],
      [
        "ri",
        "ch"
      ],
      [
        "wh",
        "ore"
      ],
      [
        "ain",
        "t"
      ],
      [
        "sh",
        "ut"
      ],
      [
        "na",
        "ked"
      ],
      [
        "ly",
        "n"
      ],
      [
        "de",
        "fe"
      ],
      [
        "de",
        "ck"
      ],
      [
        "de",
        "ceive"
      ],
      [
        "some",
        "place"
      ],
      [
        "He",
        "avy"
      ],
      [
        "hi",
        "gher"
      ],
      [
        "bl",
        "ade"
      ],
      [
        "co",
        "ll"
      ],
      [
        "co",
        "ps"
      ],
      [
        "what",
        "ever"
      ],
      [
        "ap",
        "ple"
      ],
      [
        "bo",
        "ard"
      ],
      [
        "bo",
        "ss"
      ],
      [
        "po",
        "s"
      ],
      [
        "po",
        "st"
      ],
      [
        "us",
        "band"
      ],
      [
        "br",
        "ide"
      ],
      [
        "ble",
        "w"
      ],
      [
        "long",
        "er"
      ],
      [
        "ath",
        "s"
      ],
      [
        "con",
        "sc"
      ],
      [
        "every",
        "one"
      ],
      [
        "com",
        "ple"
      ],
      [
        "ree",
        "k"
      ],
      [
        "turn",
        "s"
      ],
      [
        "turn",
        "in"
      ],
      [
        "door",
        "s"
      ],
      [
        "St",
        "ar"
      ],
      [
        "dr",
        "ag"
      ],
      [
        "Th",
        "under"
      ],
      [
        "gu",
        "ard"
      ],
      [
        "beg",
        "un"
      ],
      [
        "swe",
        "etheart"
      ],
      [
        "spe",
        "ct"
      ],
      [
        "Ro",
        "se"
      ],
      [
        "fl",
        "ash"
      ],
      [
        "gre",
        "en"
      ],
      [
        "Mo",
        "ve"
      ],
      [
        "mat",
        "ch"
      ],
      [
        "pro",
        "p"
      ],
      [
        "Say",
        "s"
      ],
      [
        "lt",
        "it"
      ],
      [
        "fly",
        "in"
      ],
      [
        "kn",
        "ife"
      ],
      [
        "Jo",
        "lene"
      ],
      [
        "hill",
        "s"
      ],
      [
        "ste",
        "el"
      ],
      [
        "near",
        "ly"
      ],
      [
        "Tr",
        "ue"
      ],
      [
        "move",
        "d"
      ],
      [
        "fight",
        "ing"
      ],
      [
        "pas",
        "sing"
      ],
      [
        "High",
        "way"
      ],
      [
        "High",
        "lands"
      ],
      [
        "brain",
        "s"
      ],
      [
        "speak",
        "s"
      ],
      [
        "happen",
        "ing"
      ],
      [
        "law",
        "s"
      ],
      [
        "summer",
        "time"
      ],
      [
        "book",
        "s"
      ],
      [
        "pic",
        "nic"
      ],
      [
        "cove",
        "red"
      ],
      [
        "sur",
        "vive"
      ],
      [
        "vis",
        "ions"
      ],
      [
        "dar",
        "lin"
      ],
      [
        "shoot",
        "ing"
      ],
      [
        "queen",
        "s"
      ],
      [
        "pull",
        "ed"
      ],
      [
        "ene",
        "my"
      ],
      [
        "ha",
        "un"
      ],
      [
        "rail",
        "s"
      ],
      [
        "fing",
        "ers"
      ],
      [
        "swi",
        "m"
      ],
      [
        "sink",
        "ing"
      ],
      [
        "Mar",
        "ie"
      ],
      [
        "year",
        "nin"
      ],
      [
        "conf",
        "ess"
      ],
      [
        "streng",
        "then"
      ],
      [
        "suit",
        "case"
      ],
      [
        "hu",
        "man"
      ],
      [
        "craw",
        "l"
      ],
      [
        "vic",
        "tory"
      ],
      [
        "soldi",
        "er"
      ],
      [
        "clu",
        "b"
      ],
      [
        "suck",
        "ling"
      ],
      [
        "chime",
        "s"
      ],
      [
        "Idi",
        "ot"
      ],
      [
        "A",
        "fter"
      ],
      [
        "B",
        "out"
      ],
      [
        "C",
        "on"
      ],
      [
        "C",
        "all"
      ],
      [
        "C",
        "ity"
      ],
      [
        "D",
        "ream"
      ],
      [
        "D",
        "iam"
      ],
      [
        "D",
        "addy"
      ],
      [
        "E",
        "ach"
      ],
      [
        "F",
        "ar"
      ],
      [
        "F",
        "all"
      ],
      [
        "H",
        "old"
      ],
      [
        "J",
        "ames"
      ],
      [
        "M",
        "c"
      ],
      [
        "M",
        "ust"
      ],
      [
        "M",
        "ountain"
      ],
      [
        "P",
        "res"
      ],
      [
        "P",
        "aths"
      ],
      [
        "S",
        "ure"
      ],
      [
        "S",
        "even"
      ],
      [
        "S",
        "outh"
      ],
      [
        "T",
        "angled"
      ],
      [
        "Y",
        "et"
      ],
      [
        "a",
        "tor"
      ],
      [
        "b",
        "id"
      ],
      [
        "b",
        "al"
      ],
      [
        "c",
        "ou"
      ],
      [
        "c",
        "ig"
      ],
      [
        "c",
        "ess"
      ],
      [
        "e",
        "th"
      ],
      [
        "e",
        "ight"
      ],
      [
        "e",
        "ither"
      ],
      [
        "f",
        "ur"
      ],
      [
        "f",
        "ig"
      ],
      [
        "f",
        "ist"
      ],
      [
        "f",
        "aces"
      ],
      [
        "g",
        "in"
      ],
      [
        "g",
        "ome"
      ],
      [
        "g",
        "if"
      ],
      [
        "h",
        "usband"
      ],
      [
        "i",
        "ses"
      ],
      [
        "j",
        "um"
      ],
      [
        "k",
        "itchen"
      ],
      [
        "m",
        "ach"
      ],
      [
        "m",
        "ary"
      ],
      [
        "m",
        "aid"
      ],
      [
        "m",
        "aster"
      ],
      [
        "n",
        "ity"
      ],
      [
        "p",
        "et"
      ],
      [
        "r",
        "on"
      ],
      [
        "r",
        "ap"
      ],
      [
        "s",
        "le"
      ],
      [
        "s",
        "word"
      ],
      [
        "s",
        "undown"
      ],
      [
        "t",
        "rip"
      ],
      [
        "u",
        "red"
      ],
      [
        "v",
        "ous"
      ],
      [
        "w",
        "ed"
      ],
      [
        "z",
        "ed"
      ],
      [
        "he",
        "ed"
      ],
      [
        "an",
        "ish"
      ],
      [
        "re",
        "call"
      ],
      [
        "re",
        "ali"
      ],
      [
        "re",
        "spect"
      ],
      [
        "me",
        "ad"
      ],
      [
        "me",
        "ans"
      ],
      [
        "th",
        "ick"
      ],
      [
        "ve",
        "st"
      ],
      [
        "le",
        "avin"
      ],
      [
        "le",
        "aving"
      ],
      [
        "it",
        "ed"
      ],
      [
        "be",
        "long"
      ],
      [
        "be",
        "tray"
      ],
      [
        "er",
        "y"
      ],
      [
        "ot",
        "ion"
      ],
      [
        "all",
        "ow"
      ],
      [
        "id",
        "es"
      ],
      [
        "ac",
        "c"
      ],
      [
        "lo",
        "y"
      ],
      [
        "ch",
        "ill"
      ],
      [
        "no",
        "on"
      ],
      [
        "we",
        "st"
      ],
      [
        "we",
        "ight"
      ],
      [
        "sh",
        "ar"
      ],
      [
        "sh",
        "ort"
      ],
      [
        "un",
        "ion"
      ],
      [
        "un",
        "kind"
      ],
      [
        "na",
        "il"
      ],
      [
        "de",
        "ed"
      ],
      [
        "ok",
        "ed"
      ],
      [
        "some",
        "where"
      ],
      [
        "pe",
        "nd"
      ],
      [
        "bl",
        "az"
      ],
      [
        "co",
        "ok"
      ],
      [
        "see",
        "ing"
      ],
      [
        "pl",
        "aces"
      ],
      [
        "she",
        "lf"
      ],
      [
        "say",
        "ing"
      ],
      [
        "um",
        "b"
      ],
      [
        "To",
        "ok"
      ],
      [
        "To",
        "lling"
      ],
      [
        "bo",
        "m"
      ],
      [
        "if",
        "y"
      ],
      [
        "who",
        "se"
      ],
      [
        "where",
        "ver"
      ],
      [
        "br",
        "ings"
      ],
      [
        "br",
        "idge"
      ],
      [
        "au",
        "l"
      ],
      [
        "feel",
        "s"
      ],
      [
        "feel",
        "ings"
      ],
      [
        "fo",
        "l"
      ],
      [
        "dre",
        "amed"
      ],
      [
        "need",
        "s"
      ],
      [
        "sp",
        "ace"
      ],
      [
        "sp",
        "ent"
      ],
      [
        "im",
        "me"
      ],
      [
        "give",
        "s"
      ],
      [
        "mu",
        "ltit"
      ],
      [
        "qu",
        "arter"
      ],
      [
        "qu",
        "iet"
      ],
      [
        "For",
        "get"
      ],
      [
        "pr",
        "oud"
      ],
      [
        "pr",
        "ison"
      ],
      [
        "call",
        "ing"
      ],
      [
        "hard",
        "ly"
      ],
      [
        "under",
        "neath"
      ],
      [
        "che",
        "ek"
      ],
      [
        "Th",
        "ings"
      ],
      [
        "ol",
        "s"
      ],
      [
        "ex",
        "ist"
      ],
      [
        "hold",
        "ing"
      ],
      [
        "run",
        "s"
      ],
      [
        "work",
        "in"
      ],
      [
        "gg",
        "ed"
      ],
      [
        "kind",
        "s"
      ],
      [
        "lad",
        "ies"
      ],
      [
        "fl",
        "ag"
      ],
      [
        "gre",
        "ed"
      ],
      [
        "Will",
        "iam"
      ],
      [
        "dri",
        "vin"
      ],
      [
        "sit",
        "u"
      ],
      [
        "sit",
        "ting"
      ],
      [
        "inn",
        "in"
      ],
      [
        "dis",
        "grace"
      ],
      [
        "pro",
        "ve"
      ],
      [
        "pro",
        "per"
      ],
      [
        "anc",
        "y"
      ],
      [
        "show",
        "ed"
      ],
      [
        "start",
        "s"
      ],
      [
        "tin",
        "ess"
      ],
      [
        "dy",
        "in"
      ],
      [
        "Bl",
        "ind"
      ],
      [
        "pray",
        "ers"
      ],
      [
        "cur",
        "tain"
      ],
      [
        "pu",
        "sh"
      ],
      [
        "king",
        "dom"
      ],
      [
        "Re",
        "ed"
      ],
      [
        "vo",
        "ices"
      ],
      [
        "ins",
        "ane"
      ],
      [
        "follow",
        "ed"
      ],
      [
        "De",
        "ad"
      ],
      [
        "wild",
        "erness"
      ],
      [
        "bus",
        "y"
      ],
      [
        "mar",
        "ried"
      ],
      [
        "ris",
        "ing"
      ],
      [
        "lover",
        "s"
      ],
      [
        "pear",
        "ls"
      ],
      [
        "nor",
        "th"
      ],
      [
        "cap",
        "tain"
      ],
      [
        "dar",
        "ling"
      ],
      [
        "pi",
        "er"
      ],
      [
        "sm",
        "all"
      ],
      [
        "op",
        "ard"
      ],
      [
        "Rub",
        "in"
      ],
      [
        "spo",
        "ke"
      ],
      [
        "whis",
        "per"
      ],
      [
        "chain",
        "s"
      ],
      [
        "tong",
        "ues"
      ],
      [
        "Good",
        "bye"
      ],
      [
        "fing",
        "er"
      ],
      [
        "Bet",
        "ter"
      ],
      [
        "Sp",
        "anish"
      ],
      [
        "bur",
        "st"
      ],
      [
        "battle",
        "s"
      ],
      [
        "stick",
        "s"
      ],
      [
        "Stand",
        "ing"
      ],
      [
        "Qu",
        "inn"
      ],
      [
        "dam",
        "n"
      ],
      [
        "cru",
        "el"
      ],
      [
        "lone",
        "ly"
      ],
      [
        "vie",
        "w"
      ],
      [
        "Ame",
        "rican"
      ],
      [
        "Bir",
        "d"
      ],
      [
        "believ",
        "able"
      ],
      [
        "diam",
        "ond"
      ],
      [
        "cer",
        "tain"
      ],
      [
        "pal",
        "m"
      ],
      [
        "sal",
        "vation"
      ],
      [
        "Mont",
        "gome"
      ],
      [
        "mus",
        "ic"
      ],
      [
        "blan",
        "ket"
      ],
      [
        "memor",
        "ies"
      ],
      [
        "Pri",
        "est"
      ],
      [
        "Ton",
        "ight"
      ],
      [
        "dou",
        "bt"
      ],
      [
        "kis",
        "sed"
      ],
      [
        "nat",
        "ur"
      ],
      [
        "wag",
        "on"
      ],
      [
        "melo",
        "dy"
      ],
      [
        "prop",
        "het"
      ],
      [
        "Diam",
        "ond"
      ],
      [
        "Montgome",
        "ry"
      ],
      [
        "A",
        "p"
      ],
      [
        "B",
        "ell"
      ],
      [
        "C",
        "ry"
      ],
      [
        "C",
        "hi"
      ],
      [
        "C",
        "ap"
      ],
      [
        "C",
        "ount"
      ],
      [
        "D",
        "r"
      ],
      [
        "E",
        "x"
      ],
      [
        "E",
        "ng"
      ],
      [
        "F",
        "ive"
      ],
      [
        "G",
        "r"
      ],
      [
        "H",
        "ang"
      ],
      [
        "L",
        "u"
      ],
      [
        "L",
        "ow"
      ],
      [
        "L",
        "ight"
      ],
      [
        "L",
        "ate"
      ],
      [
        "M",
        "er"
      ],
      [
        "M",
        "ad"
      ],
      [
        "M",
        "ade"
      ],
      [
        "M",
        "ex"
      ],
      [
        "O",
        "ver"
      ],
      [
        "O",
        "ur"
      ],
      [
        "P",
        "as"
      ],
      [
        "P",
        "ap"
      ],
      [
        "S",
        "we"
      ],
      [
        "S",
        "ix"
      ],
      [
        "S",
        "aw"
      ],
      [
        "T",
        "od"
      ],
      [
        "T",
        "was"
      ],
      [
        "T",
        "iny"
      ],
      [
        "T",
        "rails"
      ],
      [
        "V",
        "ale"
      ],
      [
        "W",
        "ould"
      ],
      [
        "W",
        "alkin"
      ],
      [
        "a",
        "led"
      ],
      [
        "b",
        "an"
      ],
      [
        "b",
        "ill"
      ],
      [
        "b",
        "ag"
      ],
      [
        "b",
        "ase"
      ],
      [
        "b",
        "ank"
      ],
      [
        "b",
        "order"
      ],
      [
        "c",
        "ot"
      ],
      [
        "c",
        "ure"
      ],
      [
        "c",
        "age"
      ],
      [
        "d",
        "im"
      ],
      [
        "d",
        "anger"
      ],
      [
        "f",
        "et"
      ],
      [
        "f",
        "fe"
      ],
      [
        "f",
        "ade"
      ],
      [
        "f",
        "ought"
      ],
      [
        "f",
        "lu"
      ],
      [
        "f",
        "ence"
      ],
      [
        "f",
        "arewell"
      ],
      [
        "g",
        "i"
      ],
      [
        "g",
        "as"
      ],
      [
        "g",
        "um"
      ],
      [
        "h",
        "am"
      ],
      [
        "i",
        "li"
      ],
      [
        "i",
        "ot"
      ],
      [
        "i",
        "br"
      ],
      [
        "i",
        "que"
      ],
      [
        "l",
        "or"
      ],
      [
        "o",
        "th"
      ],
      [
        "p",
        "our"
      ],
      [
        "p",
        "ants"
      ],
      [
        "r",
        "ot"
      ],
      [
        "r",
        "ant"
      ],
      [
        "s",
        "wall"
      ],
      [
        "t",
        "ur"
      ],
      [
        "t",
        "aught"
      ],
      [
        "t",
        "wel"
      ],
      [
        "u",
        "g"
      ],
      [
        "v",
        "ac"
      ],
      [
        "w",
        "are"
      ],
      [
        "w",
        "inter"
      ],
      [
        "w",
        "ards"
      ],
      [
        "’",
        "?"
      ],
      [
        "he",
        "l"
      ],
      [
        "ou",
        "l"
      ],
      [
        "re",
        "c"
      ],
      [
        "re",
        "ss"
      ],
      [
        "on",
        "a"
      ],
      [
        "to",
        "l"
      ],
      [
        "to",
        "es"
      ],
      [
        "ve",
        "nt"
      ],
      [
        "st",
        "are"
      ],
      [
        "st",
        "ic"
      ],
      [
        "st",
        "ud"
      ],
      [
        "st",
        "umble"
      ],
      [
        "ing",
        "er"
      ],
      [
        "ing",
        "ale"
      ],
      [
        "le",
        "m"
      ],
      [
        "le",
        "ast"
      ],
      [
        "le",
        "ct"
      ],
      [
        "le",
        "opard"
      ],
      [
        "se",
        "lves"
      ],
      [
        "it",
        "an"
      ],
      [
        "it",
        "ch"
      ],
      [
        "it",
        "ies"
      ],
      [
        "be",
        "nt"
      ],
      [
        "is",
        "hed"
      ],
      [
        "as",
        "ure"
      ],
      [
        "ke",
        "st"
      ],
      [
        "li",
        "d"
      ],
      [
        "li",
        "on"
      ],
      [
        "li",
        "ce"
      ],
      [
        "li",
        "ked"
      ],
      [
        "ad",
        "es"
      ],
      [
        "ro",
        "o"
      ],
      [
        "ro",
        "ve"
      ],
      [
        "es",
        "cape"
      ],
      [
        "my",
        "stic"
      ],
      [
        "ac",
        "he"
      ],
      [
        "lo",
        "od"
      ],
      [
        "lo",
        "om"
      ],
      [
        "The",
        "m"
      ],
      [
        "al",
        "ity"
      ],
      [
        "al",
        "ous"
      ],
      [
        "for",
        "ce"
      ],
      [
        "for",
        "tune"
      ],
      [
        "we",
        "ak"
      ],
      [
        "ti",
        "ck"
      ],
      [
        "sh",
        "ade"
      ],
      [
        "sh",
        "ips"
      ],
      [
        "ir",
        "ons"
      ],
      [
        "un",
        "iver"
      ],
      [
        "un",
        "believable"
      ],
      [
        "are",
        "st"
      ],
      [
        "ake",
        "s"
      ],
      [
        "de",
        "af"
      ],
      [
        "ce",
        "ase"
      ],
      [
        "some",
        "how"
      ],
      [
        "so",
        "ci"
      ],
      [
        "tr",
        "ump"
      ],
      [
        "have",
        "n"
      ],
      [
        "love",
        "s"
      ],
      [
        "too",
        "th"
      ],
      [
        "ap",
        "o"
      ],
      [
        "ap",
        "er"
      ],
      [
        "mo",
        "ving"
      ],
      [
        "night",
        "ingale"
      ],
      [
        "us",
        "ion"
      ],
      [
        "br",
        "ass"
      ],
      [
        "think",
        "s"
      ],
      [
        "au",
        "th"
      ],
      [
        "ate",
        "ly"
      ],
      [
        "fo",
        "od"
      ],
      [
        "em",
        "s"
      ],
      [
        "hand",
        "le"
      ],
      [
        "need",
        "ed"
      ],
      [
        "sp",
        "ell"
      ],
      [
        "sp",
        "ring"
      ],
      [
        "im",
        "ag"
      ],
      [
        "live",
        "red"
      ],
      [
        "di",
        "re"
      ],
      [
        "sun",
        "g"
      ],
      [
        "dr",
        "ain"
      ],
      [
        "dr",
        "um"
      ],
      [
        "dr",
        "unk"
      ],
      [
        "fu",
        "sed"
      ],
      [
        "str",
        "ings"
      ],
      [
        "fall",
        "s"
      ],
      [
        "ex",
        "cept"
      ],
      [
        "Li",
        "vin"
      ],
      [
        "su",
        "b"
      ],
      [
        "car",
        "ried"
      ],
      [
        "gu",
        "y"
      ],
      [
        "gu",
        "il"
      ],
      [
        "fi",
        "x"
      ],
      [
        "te",
        "le"
      ],
      [
        "te",
        "ach"
      ],
      [
        "swe",
        "ep"
      ],
      [
        "ser",
        "v"
      ],
      [
        "wr",
        "ote"
      ],
      [
        "work",
        "ing"
      ],
      [
        "dream",
        "ing"
      ],
      [
        "blo",
        "ody"
      ],
      [
        "blo",
        "om"
      ],
      [
        "chang",
        "ing"
      ],
      [
        "sho",
        "e"
      ],
      [
        "roll",
        "ed"
      ],
      [
        "fl",
        "ame"
      ],
      [
        "Do",
        "es"
      ],
      [
        "stay",
        "ed"
      ],
      [
        "stop",
        "ped"
      ],
      [
        "pro",
        "bab"
      ],
      [
        "song",
        "s"
      ],
      [
        "ru",
        "le"
      ],
      [
        "pain",
        "ted"
      ],
      [
        "cl",
        "own"
      ],
      [
        "cur",
        "sed"
      ],
      [
        "que",
        "st"
      ],
      [
        "flo",
        "od"
      ],
      [
        "bir",
        "th"
      ],
      [
        "bir",
        "ds"
      ],
      [
        "knock",
        "ed"
      ],
      [
        "pri",
        "est"
      ],
      [
        "whe",
        "els"
      ],
      [
        "Le",
        "ave"
      ],
      [
        "Le",
        "avin"
      ],
      [
        "fin",
        "al"
      ],
      [
        "gl",
        "ory"
      ],
      [
        "gl",
        "asses"
      ],
      [
        "open",
        "ed"
      ],
      [
        "fool",
        "s"
      ],
      [
        "Joh",
        "anna"
      ],
      [
        "smile",
        "d"
      ],
      [
        "Ho",
        "pin"
      ],
      [
        "kid",
        "s"
      ],
      [
        "kne",
        "e"
      ],
      [
        "cont",
        "ent"
      ]
    ]
  }
}